/* Copyright 2018 The TensorFlow Authors. All Rights Reserved.

Licensed under the Apache License, Version 2.0 (the "License");
you may not use this file except in compliance with the License.
You may obtain a copy of the License at

    http://www.apache.org/licenses/LICENSE-2.0

Unless required by applicable law or agreed to in writing, software
distributed under the License is distributed on an "AS IS" BASIS,
WITHOUT WARRANTIES OR CONDITIONS OF ANY KIND, either express or implied.
See the License for the specific language governing permissions and
limitations under the License.
==============================================================================*/

// Automatically created from a TensorFlow Lite flatbuffer using the command:
// xxd -i tiny_conv.tflite > tiny_conv_simple_features_model_data.cc
// See the README for a full description of the creation process.

#include "micro_features_tiny_conv_micro_features_model_data.h"

// We need to keep the data array aligned on some architectures.
#ifdef __has_attribute
#define HAVE_ATTRIBUTE(x) __has_attribute(x)
#else
#define HAVE_ATTRIBUTE(x) 0
#endif
#if HAVE_ATTRIBUTE(aligned) || (defined(__GNUC__) && !defined(__clang__))
#define DATA_ALIGN_ATTRIBUTE __attribute__((aligned(4)))
#else
#define DATA_ALIGN_ATTRIBUTE
#endif

const unsigned char
    g_tiny_conv_micro_features_model_data[] DATA_ALIGN_ATTRIBUTE = {
  0x1c, 0x00, 0x00, 0x00, 0x54, 0x46, 0x4c, 0x33, 0x00, 0x00, 0x00, 0x00,
  0x00, 0x00, 0x0e, 0x00, 0x18, 0x00, 0x04, 0x00, 0x08, 0x00, 0x0c, 0x00,
  0x10, 0x00, 0x14, 0x00, 0x0e, 0x00, 0x00, 0x00, 0x03, 0x00, 0x00, 0x00,
  0x6c, 0x56, 0x00, 0x00, 0x0c, 0x00, 0x00, 0x00, 0x10, 0x00, 0x00, 0x00,
  0x20, 0x00, 0x00, 0x00, 0x01, 0x00, 0x00, 0x00, 0x74, 0x00, 0x00, 0x00,
  0x0f, 0x00, 0x00, 0x00, 0x54, 0x4f, 0x43, 0x4f, 0x20, 0x43, 0x6f, 0x6e,
  0x76, 0x65, 0x72, 0x74, 0x65, 0x64, 0x2e, 0x00, 0x09, 0x00, 0x00, 0x00,
  0x54, 0x00, 0x00, 0x00, 0x48, 0x00, 0x00, 0x00, 0x3c, 0x00, 0x00, 0x00,
  0x34, 0x00, 0x00, 0x00, 0x2c, 0x00, 0x00, 0x00, 0x24, 0x00, 0x00, 0x00,
  0x18, 0x00, 0x00, 0x00, 0x10, 0x00, 0x00, 0x00, 0x04, 0x00, 0x00, 0x00,
  0xae, 0xaa, 0xff, 0xff, 0x10, 0x01, 0x00, 0x00, 0x5c, 0xaa, 0xff, 0xff,
  0xba, 0xaa, 0xff, 0xff, 0x28, 0x50, 0x00, 0x00, 0x68, 0xaa, 0xff, 0xff,
  0x6c, 0xaa, 0xff, 0xff, 0x70, 0xaa, 0xff, 0xff, 0xce, 0xaa, 0xff, 0xff,
  0x44, 0x54, 0x00, 0x00, 0xd6, 0xaa, 0xff, 0xff, 0xcc, 0x54, 0x00, 0x00,
  0x84, 0xaa, 0xff, 0xff, 0x60, 0xac, 0xff, 0xff, 0x20, 0x00, 0x00, 0x00,
  0x14, 0x00, 0x00, 0x00, 0x08, 0x00, 0x00, 0x00, 0xcc, 0x54, 0x00, 0x00,
  0x01, 0x00, 0x00, 0x00, 0x05, 0x00, 0x00, 0x00, 0x01, 0x00, 0x00, 0x00,
  0x03, 0x00, 0x00, 0x00, 0x08, 0x00, 0x00, 0x00, 0xbc, 0x53, 0x00, 0x00,
  0x3c, 0x54, 0x00, 0x00, 0xd4, 0x4e, 0x00, 0x00, 0x54, 0x52, 0x00, 0x00,
  0xc4, 0x52, 0x00, 0x00, 0x2c, 0x53, 0x00, 0x00, 0x34, 0x4f, 0x00, 0x00,
  0x04, 0x00, 0x00, 0x00, 0xee, 0xab, 0xff, 0xff, 0x00, 0x00, 0x00, 0x03,
  0x10, 0x00, 0x00, 0x00, 0x08, 0x00, 0x00, 0x00, 0x14, 0x00, 0x00, 0x00,
  0x48, 0x00, 0x00, 0x00, 0x02, 0x00, 0x00, 0x00, 0x05, 0x00, 0x00, 0x00,
  0xa0, 0x0f, 0x00, 0x00, 0x31, 0x00, 0x00, 0x00, 0x77, 0x65, 0x69, 0x67,
  0x68, 0x74, 0x73, 0x5f, 0x71, 0x75, 0x61, 0x6e, 0x74, 0x5f, 0x31, 0x2f,
  0x46, 0x61, 0x6b, 0x65, 0x51, 0x75, 0x61, 0x6e, 0x74, 0x57, 0x69, 0x74,
  0x68, 0x4d, 0x69, 0x6e, 0x4d, 0x61, 0x78, 0x56, 0x61, 0x72, 0x73, 0x2f,
  0x74, 0x72, 0x61, 0x6e, 0x73, 0x70, 0x6f, 0x73, 0x65, 0x00, 0x00, 0x00,
  0x04, 0xad, 0xff, 0xff, 0x30, 0x00, 0x00, 0x00, 0x24, 0x00, 0x00, 0x00,
  0x18, 0x00, 0x00, 0x00, 0x04, 0x00, 0x00, 0x00, 0x01, 0x00, 0x00, 0x00,
  0x82, 0x00, 0x00, 0x00, 0x00, 0x00, 0x00, 0x00, 0x00, 0x00, 0x00, 0x00,
  0x01, 0x00, 0x00, 0x00, 0xcf, 0x4c, 0xd6, 0x39, 0x01, 0x00, 0x00, 0x00,
  0xc6, 0x51, 0x51, 0x3d, 0x01, 0x00, 0x00, 0x00, 0xa5, 0xee, 0x57, 0xbd,
  0x20, 0x4e, 0x00, 0x00, 0xb5, 0x9f, 0x9e, 0x94, 0x85, 0x71, 0x84, 0x66,
  0xa8, 0x97, 0x72, 0x75, 0x87, 0xa9, 0x89, 0x5f, 0xb9, 0x52, 0x68, 0x9b,
  0x78, 0xa9, 0xaa, 0x9f, 0x9d, 0x80, 0x97, 0xb2, 0x97, 0x88, 0x90, 0x8f,
  0x90, 0x87, 0x8b, 0x9c, 0x8c, 0x98, 0xa4, 0x76, 0xbb, 0xa4, 0x5e, 0x78,
  0x81, 0x88, 0x77, 0x6d, 0xa2, 0x7a, 0x67, 0x74, 0x99, 0x86, 0x77, 0x82,
  0x9b, 0x91, 0x8a, 0x8c, 0x8a, 0x79, 0x95, 0x72, 0xa4, 0x97, 0x86, 0x57,
  0x92, 0x72, 0x9f, 0x62, 0x8c, 0x88, 0x6c, 0x77, 0x93, 0x7a, 0x7b, 0x55,
  0x89, 0x82, 0x62, 0x80, 0x97, 0x64, 0x8c, 0x94, 0x92, 0x8d, 0x59, 0x8c,
  0x5c, 0x9e, 0x7f, 0x77, 0x9e, 0x9a, 0x95, 0x7d, 0x61, 0x77, 0x92, 0x77,
  0xae, 0x59, 0x91, 0x6a, 0x99, 0x9f, 0x71, 0x7d, 0xb6, 0x92, 0xa1, 0x94,
  0x74, 0x70, 0xb6, 0x7c, 0x95, 0x75, 0x84, 0x87, 0x9a, 0x9f, 0x6e, 0x86,
  0xb5, 0xa1, 0x62, 0x5b, 0x8c, 0x8c, 0x7f, 0x8b, 0x8c, 0x8b, 0x59, 0x59,
  0x7a, 0x8a, 0x75, 0x8e, 0x7f, 0x77, 0x59, 0xae, 0x71, 0x78, 0xc4, 0x88,
  0x88, 0x6a, 0xad, 0xfc, 0x90, 0x79, 0xc6, 0x85, 0xb4, 0x71, 0x5e, 0x60,
  0x99, 0x6b, 0x8f, 0x72, 0xbe, 0x8e, 0x9d, 0xb1, 0x8e, 0x79, 0xc2, 0x88,
  0x7a, 0x5f, 0x86, 0x9e, 0x96, 0x77, 0xc4, 0x9c, 0xc8, 0x77, 0x6a, 0x69,
  0x64, 0x5d, 0x6c, 0x5f, 0xa3, 0x64, 0x80, 0x94, 0x67, 0x85, 0x72, 0x4d,
  0xab, 0x83, 0x94, 0x6a, 0x81, 0x82, 0x89, 0x8e, 0xbb, 0x67, 0xa9, 0x88,
  0x8c, 0x74, 0x5e, 0x53, 0xda, 0x55, 0x9a, 0x7b, 0x7e, 0x80, 0x87, 0x72,
  0xb0, 0x6b, 0x70, 0x81, 0x5f, 0xaf, 0x9f, 0x89, 0xbf, 0x78, 0xa6, 0x84,
  0x50, 0x96, 0x7d, 0x80, 0xc4, 0x8e, 0x86, 0xab, 0x6c, 0x5d, 0xa1, 0x96,
  0xae, 0x6c, 0xa1, 0x92, 0x64, 0x94, 0xa0, 0x99, 0xbc, 0x80, 0x7a, 0x91,
  0xa6, 0xa5, 0xb0, 0xa0, 0xe6, 0x85, 0x8c, 0x93, 0x89, 0x78, 0x7b, 0x78,
  0xdc, 0x81, 0x6c, 0x63, 0x9f, 0x97, 0x8a, 0x7d, 0xe9, 0x81, 0x66, 0xa4,
  0x6c, 0x8d, 0x95, 0x9f, 0xbc, 0x9b, 0x65, 0x9a, 0x8c, 0x88, 0xa9, 0x92,
  0xbd, 0x7b, 0x87, 0x8e, 0x94, 0x59, 0xb8, 0xa1, 0xc1, 0x6b, 0x87, 0xbb,
  0x6f, 0x77, 0xb5, 0x7b, 0x7c, 0x85, 0x69, 0xec, 0x87, 0x76, 0xd3, 0x7f,
  0x59, 0x92, 0x84, 0x71, 0x76, 0x91, 0x72, 0x84, 0x94, 0x39, 0xa5, 0xa8,
  0x7a, 0xad, 0x8d, 0x6e, 0x7f, 0x5b, 0x72, 0x98, 0x68, 0x91, 0x7f, 0xab,
  0x86, 0x4a, 0x7d, 0x53, 0x6a, 0x63, 0x58, 0xbd, 0x62, 0x7d, 0x65, 0x42,
  0x75, 0x71, 0x74, 0xa5, 0x72, 0x64, 0x73, 0x6e, 0x42, 0x7d, 0x57, 0x98,
  0x8c, 0x70, 0xa4, 0x57, 0x75, 0x7a, 0x73, 0x98, 0x88, 0x4b, 0x9f, 0x5d,
  0x78, 0x87, 0x5d, 0x90, 0x7c, 0x3d, 0x63, 0x75, 0x56, 0x8d, 0x7c, 0x9a,
  0x76, 0x7b, 0x87, 0x8c, 0x4a, 0x9d, 0x6d, 0xb3, 0x66, 0x5a, 0x65, 0x7c,
  0x52, 0xa2, 0x6b, 0xad, 0x86, 0x76, 0x8e, 0x83, 0x79, 0x7d, 0x8d, 0xc2,
  0x90, 0x79, 0x7a, 0xb5, 0x73, 0x82, 0x74, 0xc8, 0x6d, 0x82, 0xa9, 0x86,
  0x5e, 0x71, 0x63, 0xcc, 0xbc, 0x64, 0x8b, 0x71, 0x8d, 0x7d, 0x75, 0xcc,
  0x66, 0x9c, 0x9a, 0x4f, 0x84, 0x67, 0x61, 0xc6, 0x81, 0xb0, 0x89, 0x72,
  0x9e, 0x54, 0x83, 0xd4, 0x68, 0x7f, 0x8e, 0x88, 0x87, 0x97, 0x8f, 0xd7,
  0xa9, 0x8c, 0x88, 0xce, 0x96, 0x91, 0xb7, 0x86, 0xa5, 0x64, 0x9a, 0xe2,
  0x8f, 0x85, 0xca, 0x8d, 0x7e, 0x7b, 0x6f, 0x72, 0x4f, 0x6e, 0x62, 0x41,
  0x8a, 0x52, 0xa3, 0xa2, 0x57, 0x77, 0x84, 0x5c, 0x77, 0x54, 0x71, 0x71,
  0x66, 0x5d, 0x71, 0x92, 0x79, 0x50, 0x8f, 0x47, 0x3a, 0xaa, 0x66, 0x78,
  0x6e, 0x45, 0x80, 0x56, 0x3f, 0x9b, 0x82, 0x79, 0x62, 0x6e, 0x7e, 0x56,
  0x3d, 0x6e, 0x84, 0x76, 0x81, 0x35, 0xa8, 0x53, 0x63, 0x86, 0x65, 0x81,
  0x70, 0x32, 0x5f, 0x57, 0x65, 0x92, 0x72, 0x80, 0x99, 0x65, 0x78, 0x7a,
  0x45, 0x7d, 0x54, 0x76, 0x64, 0x3e, 0x8c, 0x5c, 0x49, 0x89, 0x5a, 0x9d,
  0x4a, 0x5b, 0x84, 0x98, 0x73, 0xa9, 0x56, 0x96, 0x63, 0x62, 0x60, 0x7a,
  0x4a, 0x61, 0x67, 0x94, 0x7b, 0x9b, 0x8b, 0x7f, 0x5c, 0x8b, 0x67, 0xbb,
  0x94, 0x6e, 0x76, 0x57, 0x68, 0x7f, 0x45, 0xa3, 0x86, 0x90, 0x9a, 0x5a,
  0x8b, 0x7a, 0x6e, 0x98, 0x5a, 0x91, 0xbe, 0x86, 0xa3, 0x54, 0x77, 0x8e,
  0x5c, 0x90, 0x83, 0x69, 0x73, 0x9f, 0x57, 0xc8, 0x4f, 0x6b, 0x9c, 0x80,
  0x83, 0x8b, 0x79, 0xcf, 0x90, 0x72, 0x79, 0xbd, 0x78, 0x93, 0xb5, 0x91,
  0x9c, 0x6e, 0xac, 0xd4, 0x68, 0x7a, 0xc8, 0x86, 0x80, 0x8b, 0x8b, 0x95,
  0x57, 0x90, 0x6f, 0x66, 0x84, 0x5e, 0x86, 0x6a, 0x62, 0x6b, 0x83, 0x3b,
  0x7a, 0x73, 0x6d, 0x44, 0x5f, 0x6a, 0x6e, 0x76, 0x78, 0x68, 0x73, 0x3a,
  0x4b, 0x93, 0x62, 0x7f, 0x90, 0x40, 0x74, 0x71, 0x57, 0x83, 0x6f, 0x5d,
  0x81, 0x51, 0x84, 0x7e, 0x59, 0x74, 0x61, 0x7a, 0x93, 0x61, 0x76, 0x2d,
  0x69, 0x92, 0x37, 0x70, 0x81, 0x55, 0x5d, 0x49, 0x8d, 0x89, 0x63, 0x58,
  0x5e, 0x59, 0x9b, 0x5a, 0x3f, 0x57, 0x75, 0x71, 0x64, 0x28, 0xa3, 0x7e,
  0x70, 0x67, 0x8a, 0x93, 0x6e, 0x81, 0x70, 0x99, 0x62, 0x63, 0x65, 0x8c,
  0x86, 0x68, 0x6e, 0x7c, 0x77, 0x6c, 0x92, 0xa8, 0x7d, 0x5f, 0x91, 0x60,
  0x8d, 0x84, 0x8d, 0xaa, 0x92, 0x86, 0x73, 0x53, 0x7a, 0x6a, 0x85, 0x9f,
  0x9d, 0x87, 0xac, 0x6a, 0x5d, 0x7a, 0x6b, 0x9c, 0x50, 0x7c, 0x91, 0x91,
  0x83, 0x75, 0x9c, 0x98, 0x4e, 0x9b, 0x77, 0x77, 0x93, 0x84, 0x94, 0xbf,
  0x6a, 0xa1, 0x90, 0x6d, 0x9b, 0x7d, 0x5a, 0xb1, 0x74, 0xa5, 0x63, 0xa8,
  0x6d, 0x7f, 0xb0, 0x79, 0xaa, 0x7d, 0xc4, 0xde, 0x6c, 0x90, 0xc0, 0x97,
  0x82, 0x84, 0x85, 0x96, 0x6e, 0x6b, 0x8b, 0x83, 0x6c, 0x74, 0xae, 0x76,
  0x8e, 0x6d, 0x79, 0x45, 0x80, 0x66, 0x91, 0x5d, 0x82, 0x5c, 0x8d, 0x5a,
  0x61, 0x65, 0x89, 0x3b, 0x65, 0x7f, 0x85, 0x6c, 0x5b, 0x54, 0x89, 0x4b,
  0x62, 0x88, 0x55, 0x66, 0x6a, 0x5f, 0x76, 0x3f, 0x88, 0x6e, 0x55, 0x60,
  0x7e, 0x90, 0x8d, 0x3e, 0x7e, 0x80, 0x7b, 0x6d, 0x82, 0x56, 0x6b, 0x4a,
  0x6c, 0x5a, 0x70, 0x60, 0x75, 0x4a, 0x64, 0x61, 0x75, 0x9b, 0x6e, 0x83,
  0x64, 0x7b, 0xa2, 0x8a, 0x5e, 0x89, 0x86, 0x7b, 0x97, 0x63, 0x7e, 0x74,
  0x78, 0x5c, 0x74, 0x93, 0x7e, 0x80, 0x85, 0x95, 0x68, 0x7d, 0x6f, 0xa1,
  0xa6, 0x5f, 0x93, 0x74, 0x74, 0x9c, 0x7d, 0x92, 0x9c, 0x9e, 0x66, 0x89,
  0x81, 0x88, 0x74, 0xa1, 0x8f, 0x80, 0x9c, 0x72, 0x80, 0x82, 0x63, 0x97,
  0x6f, 0x6f, 0x9b, 0x67, 0x81, 0x6d, 0x6f, 0xab, 0x75, 0xa4, 0x86, 0x6d,
  0x96, 0x9e, 0xa1, 0xb0, 0x78, 0xac, 0x7e, 0x85, 0x75, 0x9c, 0xa3, 0xd2,
  0x9f, 0x7b, 0x8c, 0xbb, 0xa8, 0x89, 0x96, 0x9b, 0xa4, 0xa0, 0xb9, 0xd5,
  0x89, 0x7c, 0xbe, 0x73, 0x50, 0x87, 0x52, 0xa8, 0x5f, 0x71, 0x6c, 0x59,
  0x43, 0x69, 0xba, 0x52, 0x6b, 0x8d, 0x83, 0x51, 0x81, 0x5e, 0x6b, 0x64,
  0x85, 0xa7, 0x51, 0x4f, 0x63, 0x50, 0x9c, 0x3a, 0x5e, 0x87, 0x6b, 0x4d,
  0x53, 0x62, 0x9d, 0x79, 0x69, 0x8d, 0x5f, 0x44, 0x75, 0x71, 0x95, 0x57,
  0x77, 0xa5, 0x64, 0x6e, 0xb1, 0x58, 0xb7, 0x62, 0x7c, 0x8b, 0x66, 0x56,
  0x6f, 0x6a, 0x8f, 0x53, 0x5b, 0x7b, 0x50, 0x6c, 0x56, 0x4e, 0x8f, 0x6e,
  0x63, 0x82, 0x69, 0x6a, 0x67, 0x67, 0xa8, 0x6a, 0x66, 0xa5, 0x76, 0x81,
  0x86, 0x47, 0x85, 0x65, 0x8c, 0x7d, 0x7b, 0x87, 0x71, 0x7b, 0x8f, 0x7e,
  0x4f, 0x6e, 0x9b, 0xa3, 0x7e, 0x5c, 0xa7, 0x7f, 0x98, 0x99, 0x79, 0x9b,
  0x6d, 0xa6, 0xa3, 0x51, 0x95, 0x87, 0x65, 0x97, 0x6e, 0x96, 0x8c, 0x72,
  0x56, 0xa0, 0x61, 0x8f, 0x59, 0xa3, 0x92, 0x83, 0x90, 0x76, 0x78, 0xc5,
  0x56, 0x6a, 0xbb, 0x69, 0x76, 0x9d, 0x63, 0xcf, 0x6c, 0x82, 0x87, 0x6a,
  0xa1, 0x9f, 0x8b, 0xcd, 0x8c, 0x87, 0xa5, 0xbd, 0x89, 0x62, 0x8e, 0xa3,
  0xbc, 0x7c, 0xc3, 0xd3, 0x82, 0x64, 0xb8, 0x9b, 0x58, 0x76, 0x69, 0x54,
  0x60, 0x84, 0x7d, 0x94, 0x48, 0x6b, 0xd1, 0x74, 0x8a, 0x67, 0x77, 0x5a,
  0x6b, 0x8b, 0x95, 0x60, 0x55, 0x9d, 0x6d, 0x48, 0x4f, 0x49, 0x9f, 0x5e,
  0x63, 0x86, 0x8b, 0x52, 0x6b, 0x53, 0xb7, 0x64, 0x53, 0x7d, 0x69, 0x4e,
  0x8d, 0x6f, 0x92, 0x53, 0x8c, 0x80, 0x33, 0x40, 0x92, 0x69, 0xa5, 0x54,
  0x93, 0x86, 0x7b, 0x3d, 0x4b, 0x55, 0x9c, 0x3a, 0x6e, 0x6d, 0x6c, 0x5b,
  0x66, 0x6c, 0xa2, 0x7c, 0x5b, 0x71, 0x70, 0x76, 0x98, 0x5e, 0x7a, 0x8d,
  0x75, 0xa0, 0x72, 0x71, 0x82, 0x7f, 0x9b, 0x9a, 0x69, 0x97, 0x6c, 0x80,
  0x7b, 0x68, 0x9c, 0x66, 0x96, 0x79, 0x73, 0x8f, 0x6b, 0x87, 0xa9, 0x6e,
  0x96, 0x92, 0x7c, 0x9a, 0x71, 0x9c, 0x90, 0x4d, 0x79, 0x7d, 0x85, 0x9f,
  0x76, 0x65, 0xa9, 0x73, 0x84, 0x80, 0x5a, 0x8e, 0x63, 0x6d, 0x87, 0x79,
  0xa8, 0x5e, 0x64, 0x9b, 0x64, 0x68, 0x93, 0x71, 0x76, 0x8c, 0x73, 0xba,
  0x6e, 0x8f, 0xa6, 0x67, 0xb0, 0x95, 0x58, 0xb7, 0x86, 0x59, 0x83, 0xb2,
  0x89, 0x9e, 0xa3, 0x9f, 0xc3, 0xb1, 0xc6, 0xd1, 0x6c, 0x84, 0xbd, 0x7f,
  0x5b, 0x7a, 0x64, 0x7d, 0x6a, 0x6a, 0x83, 0x57, 0x36, 0x71, 0xa7, 0x83,
  0x74, 0x84, 0x53, 0x56, 0x74, 0x75, 0x97, 0x61, 0x84, 0x81, 0x62, 0x4e,
  0x6c, 0x57, 0xa7, 0x4b, 0x7c, 0x8f, 0x62, 0x28, 0x88, 0x44, 0x72, 0x74,
  0x72, 0x76, 0x4f, 0x3d, 0x80, 0x90, 0x8a, 0x40, 0x5c, 0x83, 0x58, 0x5c,
  0x84, 0x4a, 0xbe, 0x57, 0x6d, 0x65, 0x60, 0x64, 0x74, 0x51, 0x85, 0x6f,
  0x51, 0x7d, 0x7a, 0x56, 0x4f, 0x58, 0x93, 0x72, 0x64, 0x9d, 0x47, 0x65,
  0x69, 0x5b, 0x9e, 0x89, 0x76, 0x8f, 0x76, 0x7b, 0xa4, 0x6f, 0xb2, 0x95,
  0x93, 0x5d, 0x78, 0x7e, 0x7f, 0x75, 0x99, 0x70, 0x7d, 0x8e, 0x87, 0x9d,
  0x94, 0x7d, 0x9e, 0x7b, 0x94, 0x77, 0x7c, 0x99, 0x57, 0x8d, 0xa8, 0x89,
  0x77, 0x79, 0x92, 0x94, 0x64, 0x77, 0xa2, 0x7c, 0x73, 0x61, 0x4c, 0x7f,
  0x5e, 0x8d, 0xb9, 0x50, 0x7b, 0x6c, 0x95, 0xae, 0x6f, 0x97, 0xaf, 0x89,
  0x7e, 0x99, 0x79, 0x92, 0x6b, 0x90, 0xb4, 0x49, 0x61, 0x86, 0x7b, 0xb4,
  0x96, 0xa2, 0xa0, 0xc8, 0xaa, 0x65, 0x95, 0x7d, 0xb2, 0x9b, 0xbe, 0xd1,
  0x8c, 0x90, 0xbb, 0xa3, 0x59, 0x65, 0x70, 0x6b, 0x6a, 0x5e, 0x56, 0x9b,
  0x3c, 0x5f, 0xc6, 0x55, 0x71, 0x9e, 0x68, 0x81, 0x63, 0x74, 0x64, 0x57,
  0x6c, 0x72, 0x69, 0x35, 0x4f, 0x4e, 0x8e, 0x5f, 0x6a, 0x9e, 0x74, 0x4a,
  0x6a, 0x3b, 0x99, 0x7e, 0x66, 0x8e, 0x6d, 0x1f, 0x7f, 0x73, 0xb3, 0x61,
  0x8d, 0x9e, 0x3e, 0x37, 0x8d, 0x5f, 0x92, 0x4d, 0x5c, 0xa3, 0x75, 0x54,
  0x7b, 0x60, 0x9a, 0x78, 0x89, 0x8c, 0x6c, 0x7d, 0x58, 0x6a, 0x88, 0x94,
  0x77, 0x7c, 0x57, 0x77, 0x95, 0x61, 0xb8, 0xa2, 0x9b, 0x85, 0x71, 0x81,
  0x67, 0x85, 0xad, 0x85, 0x7c, 0x79, 0x71, 0x92, 0x5a, 0x67, 0x94, 0x79,
  0x88, 0x8a, 0xa4, 0x98, 0x72, 0x8d, 0x9f, 0x99, 0x6f, 0x68, 0x9c, 0xab,
  0x7d, 0x78, 0x90, 0x96, 0x97, 0x85, 0x9e, 0x76, 0x57, 0x5c, 0xbb, 0x62,
  0x67, 0xad, 0x71, 0xa9, 0x5b, 0x62, 0xd5, 0x4b, 0x76, 0x98, 0x74, 0x8b,
  0x69, 0x86, 0xa7, 0x75, 0x5d, 0x95, 0x7a, 0xb2, 0x8b, 0x84, 0xcc, 0x5c,
  0x91, 0x7e, 0x7d, 0x91, 0xa1, 0x86, 0x62, 0xd2, 0x84, 0x87, 0x83, 0x99,
  0xb6, 0x72, 0x8d, 0xd9, 0x66, 0x81, 0xae, 0xaf, 0x47, 0x7d, 0x75, 0x85,
  0x55, 0x86, 0x7f, 0x72, 0x27, 0x64, 0xae, 0x60, 0x5a, 0x91, 0x79, 0x67,
  0x64, 0x5e, 0x78, 0x62, 0x4c, 0x74, 0x5d, 0x3f, 0x60, 0x44, 0xa6, 0x34,
  0x7f, 0x97, 0x65, 0x1c, 0x70, 0x6e, 0x71, 0x4c, 0x59, 0x9f, 0x58, 0x34,
  0x78, 0x74, 0x83, 0x62, 0x76, 0x67, 0x4a, 0x5d, 0x93, 0x57, 0xc9, 0x82,
  0x64, 0x9d, 0x83, 0x61, 0x8f, 0x45, 0x8d, 0x59, 0x6e, 0x95, 0x7b, 0x5e,
  0x7f, 0x38, 0xa4, 0xa5, 0x6a, 0x6a, 0x76, 0x69, 0x6f, 0x7b, 0xae, 0x92,
  0x73, 0x95, 0x7a, 0x7a, 0x77, 0x74, 0x8d, 0xaa, 0x68, 0x99, 0x55, 0x7a,
  0x7f, 0x6b, 0xb6, 0xa0, 0x80, 0x97, 0x8a, 0x9b, 0x5e, 0x99, 0xb0, 0x88,
  0x79, 0x74, 0x98, 0xbb, 0x71, 0x7c, 0xbe, 0x67, 0x96, 0x97, 0x8e, 0x7f,
  0x72, 0x72, 0xaa, 0x62, 0x98, 0x9e, 0x70, 0x93, 0x5e, 0x7a, 0xc8, 0x71,
  0x7b, 0xa3, 0x54, 0xa5, 0x5e, 0x73, 0xc1, 0x50, 0x69, 0x7f, 0x7d, 0x85,
  0x86, 0x8f, 0x9f, 0x66, 0x6c, 0x68, 0x7f, 0xa7, 0xaf, 0x89, 0x88, 0xc9,
  0x98, 0xac, 0x8d, 0x7f, 0xad, 0x89, 0x96, 0xc9, 0xa1, 0x72, 0xb2, 0x60,
  0x33, 0x60, 0xa9, 0x7c, 0x4f, 0x91, 0x72, 0x62, 0x1f, 0x51, 0xaf, 0x70,
  0x67, 0x76, 0x81, 0x7e, 0x50, 0x7b, 0x87, 0x5a, 0x89, 0x6f, 0x69, 0x3d,
  0x43, 0x7c, 0x70, 0x59, 0x5f, 0x79, 0x50, 0x04, 0x65, 0x4f, 0xaa, 0x90,
  0x7d, 0x7e, 0x5c, 0x10, 0x84, 0x7e, 0x9c, 0x77, 0x8a, 0x7b, 0x51, 0x62,
  0x78, 0x62, 0x9d, 0x95, 0x5f, 0x8c, 0x43, 0x46, 0x8a, 0x5c, 0x85, 0x6d,
  0x90, 0x92, 0x49, 0x65, 0x37, 0x4d, 0xab, 0x76, 0x8c, 0x9f, 0x60, 0x51,
  0x72, 0x76, 0xc2, 0x7f, 0x7c, 0x95, 0x71, 0x5f, 0x84, 0x66, 0x74, 0xa4,
  0x92, 0xa5, 0x54, 0x63, 0x66, 0x91, 0x99, 0x7f, 0x8a, 0x5c, 0x78, 0x8c,
  0x8a, 0x79, 0xb3, 0x8f, 0x77, 0x8c, 0x8b, 0x9f, 0x87, 0x78, 0x8c, 0x7c,
  0x96, 0xb5, 0x88, 0x89, 0x86, 0x70, 0xd3, 0x93, 0x66, 0x9d, 0x71, 0x84,
  0x5c, 0x8b, 0xb6, 0x78, 0x74, 0x7f, 0x5e, 0x94, 0x6b, 0x55, 0xc1, 0x99,
  0xa3, 0x96, 0x8a, 0xa4, 0x93, 0x74, 0xd2, 0x6a, 0x9b, 0x9a, 0x7a, 0x93,
  0x76, 0x94, 0xa6, 0xbe, 0x78, 0x5d, 0x7c, 0x80, 0xc1, 0x73, 0x9d, 0xc7,
  0x7e, 0x83, 0xbb, 0x8d, 0x59, 0x5c, 0x7b, 0x9d, 0x4a, 0x9b, 0x79, 0x80,
  0x23, 0x61, 0xcf, 0x76, 0x56, 0x93, 0x58, 0x7c, 0x68, 0x3a, 0x76, 0x87,
  0x7e, 0x9b, 0x56, 0x25, 0x68, 0x5e, 0x9c, 0x45, 0x64, 0x81, 0x58, 0x26,
  0x7b, 0x5c, 0x99, 0x5f, 0x57, 0x64, 0x5c, 0x32, 0x7b, 0x6d, 0xa0, 0x45,
  0x86, 0x74, 0x4a, 0x64, 0x8f, 0x65, 0xc0, 0x86, 0x70, 0x8e, 0x7e, 0x51,
  0x86, 0x5d, 0xa5, 0x73, 0x7d, 0x72, 0x77, 0x6a, 0x6f, 0x70, 0x8b, 0x61,
  0x67, 0x9d, 0x57, 0x53, 0x69, 0x64, 0xbe, 0x91, 0x77, 0x77, 0x79, 0x7b,
  0x71, 0x71, 0xa5, 0xa4, 0x96, 0xa8, 0x82, 0x9e, 0x75, 0x78, 0xa8, 0x82,
  0x7f, 0x94, 0x76, 0xa1, 0x5c, 0x6b, 0x84, 0x9c, 0x82, 0x9b, 0xa5, 0x80,
  0x8f, 0x62, 0xaf, 0x99, 0x5c, 0x82, 0x99, 0x98, 0x5c, 0x61, 0xb1, 0x9b,
  0x8c, 0x7f, 0x72, 0x73, 0x82, 0x77, 0xb5, 0x9b, 0x85, 0x8f, 0x6f, 0x89,
  0x7b, 0x90, 0x9d, 0x71, 0x79, 0x77, 0x85, 0x96, 0x85, 0x70, 0xa3, 0x72,
  0x79, 0x9d, 0x6b, 0xa0, 0x80, 0x77, 0x9a, 0xc2, 0x78, 0xa5, 0x81, 0x77,
  0xd9, 0x93, 0x91, 0xc7, 0x7a, 0x7e, 0xac, 0x8c, 0x44, 0x65, 0x82, 0x4d,
  0x66, 0x72, 0x7f, 0x7f, 0x38, 0x86, 0xbc, 0x6c, 0x5f, 0xa2, 0x5f, 0x4c,
  0x54, 0x6c, 0x6a, 0x5b, 0x85, 0x91, 0x4c, 0x39, 0x2d, 0x61, 0x92, 0x65,
  0x6d, 0x98, 0x5c, 0x1a, 0x62, 0x3e, 0x88, 0x77, 0x78, 0x7f, 0x45, 0x0f,
  0x66, 0x79, 0x92, 0x6d, 0x72, 0x8f, 0x50, 0x67, 0x7a, 0x71, 0x88, 0x6f,
  0x5e, 0x7e, 0x3d, 0x4e, 0x98, 0x8a, 0x7c, 0x58, 0x5d, 0x75, 0x77, 0x6c,
  0x7a, 0x76, 0x96, 0x69, 0x6b, 0x79, 0x3e, 0x78, 0x52, 0x7a, 0x76, 0x82,
  0x85, 0x90, 0x55, 0x72, 0x6b, 0x52, 0x7d, 0xa3, 0x6a, 0xac, 0x80, 0x75,
  0x73, 0x8c, 0x99, 0x99, 0x9d, 0xa4, 0x66, 0x76, 0x90, 0x82, 0xa6, 0x99,
  0x8c, 0x80, 0xaf, 0xa3, 0x96, 0x8a, 0x90, 0xb7, 0x57, 0x69, 0x7d, 0x8b,
  0x6f, 0x5e, 0xb1, 0x6e, 0x93, 0xb2, 0x66, 0x94, 0x46, 0x6e, 0x96, 0x8c,
  0x79, 0x7b, 0x86, 0x85, 0x6f, 0x7e, 0x9d, 0x94, 0x96, 0x8e, 0x5a, 0xa2,
  0x84, 0x8d, 0xa8, 0x62, 0x71, 0x9d, 0x5d, 0x93, 0x8a, 0x73, 0xa2, 0xc4,
  0x8b, 0x7b, 0x6b, 0x83, 0xa2, 0x92, 0x9b, 0xc2, 0x80, 0x6a, 0xab, 0x68,
  0x2c, 0x64, 0x5a, 0x5c, 0x6b, 0x89, 0x87, 0x66, 0x1e, 0x69, 0xc3, 0x5b,
  0x7f, 0x76, 0x6d, 0x64, 0x3d, 0x7f, 0x71, 0x57, 0x6f, 0x79, 0x62, 0x29,
  0x49, 0x58, 0x7c, 0x3e, 0x66, 0x8d, 0x43, 0x19, 0x80, 0x72, 0x92, 0x7e,
  0x76, 0x8a, 0x59, 0x32, 0x84, 0x83, 0xa1, 0x86, 0x9b, 0x8f, 0x2c, 0x5e,
  0x76, 0x88, 0xa4, 0x68, 0x5a, 0x6c, 0x80, 0x3e, 0x5a, 0x6e, 0x8d, 0x75,
  0x57, 0x81, 0x79, 0x52, 0x55, 0x45, 0x81, 0x60, 0x76, 0xa3, 0x85, 0x57,
  0x5e, 0x53, 0xa9, 0x8d, 0x5c, 0x5a, 0x5d, 0x72, 0x7a, 0x6d, 0x81, 0x91,
  0x66, 0x9a, 0x8b, 0x5d, 0x82, 0x6e, 0x88, 0x71, 0x8c, 0x75, 0x5a, 0xa2,
  0x7c, 0x97, 0xa1, 0x77, 0x97, 0x9c, 0x83, 0x98, 0x5f, 0x89, 0xa3, 0xa5,
  0x8d, 0xb0, 0x9a, 0x72, 0x8a, 0x5c, 0x99, 0x7d, 0x70, 0x8c, 0x8a, 0x7c,
  0x57, 0x6d, 0x9b, 0x6a, 0x7b, 0x73, 0x58, 0x67, 0x6b, 0x6f, 0xbd, 0x85,
  0xa2, 0x6f, 0x94, 0x9a, 0x9e, 0x74, 0x95, 0x8b, 0x62, 0x70, 0x6d, 0xab,
  0x87, 0x96, 0x88, 0xc7, 0x7a, 0x90, 0x7e, 0x95, 0xa4, 0x7a, 0x98, 0xc3,
  0x75, 0x76, 0xac, 0x88, 0x35, 0x83, 0x9a, 0x68, 0x58, 0x68, 0x61, 0x60,
  0x25, 0x61, 0xbf, 0x50, 0x8c, 0x77, 0x5d, 0x70, 0x59, 0x64, 0x8f, 0x69,
  0x6b, 0x85, 0x54, 0x03, 0x60, 0x70, 0x77, 0x57, 0x6c, 0xa8, 0x4e, 0x15,
  0x87, 0x41, 0x80, 0x79, 0x7b, 0xb4, 0x48, 0x28, 0x7c, 0x81, 0x8a, 0x65,
  0x71, 0x8c, 0x41, 0x3a, 0x98, 0x82, 0x96, 0xa0, 0x6b, 0x6a, 0x67, 0x49,
  0x8c, 0x51, 0x8c, 0x84, 0x7e, 0x70, 0x60, 0x75, 0x7f, 0x72, 0x86, 0x57,
  0x76, 0x84, 0x82, 0x5b, 0x78, 0x73, 0x94, 0x6c, 0x8e, 0x9e, 0x77, 0x50,
  0x68, 0xa2, 0x7d, 0x8b, 0x7e, 0x90, 0x71, 0x67, 0x86, 0xa6, 0x7e, 0x81,
  0x5d, 0x61, 0x92, 0x6c, 0x65, 0x66, 0xa3, 0x9e, 0x79, 0x8b, 0x9a, 0x81,
  0x7b, 0x90, 0x9a, 0x88, 0x66, 0xb5, 0x97, 0xae, 0x6e, 0x8f, 0x95, 0x86,
  0x68, 0x93, 0x58, 0x61, 0x51, 0x5a, 0xa0, 0x64, 0x80, 0x91, 0x4f, 0x81,
  0x76, 0x79, 0x9c, 0x73, 0x93, 0x89, 0x7c, 0x9e, 0x67, 0x88, 0xc2, 0x66,
  0x95, 0x7b, 0x83, 0x99, 0x85, 0x78, 0x90, 0xb1, 0x7c, 0x81, 0x80, 0x83,
  0xbe, 0x73, 0x9f, 0xbf, 0xb1, 0x81, 0xa4, 0x8d, 0x3b, 0x5f, 0x62, 0x8a,
  0x59, 0x7e, 0x68, 0x56, 0x21, 0x78, 0xa2, 0x5b, 0x86, 0x8a, 0x79, 0x76,
  0x61, 0x70, 0x6c, 0x6f, 0x56, 0x94, 0x66, 0x0f, 0x39, 0x6d, 0x76, 0x57,
  0x83, 0x8f, 0x45, 0x16, 0x7f, 0x8c, 0xa7, 0x78, 0x66, 0x82, 0x42, 0x0b,
  0x94, 0x5c, 0x83, 0x51, 0x7a, 0x88, 0x57, 0x53, 0x97, 0x7c, 0x95, 0x5a,
  0x91, 0x98, 0x66, 0x4f, 0x7c, 0x83, 0x91, 0x6d, 0x5f, 0x90, 0x55, 0x70,
  0x5f, 0x52, 0x87, 0x74, 0x90, 0xaf, 0x4b, 0x5b, 0x88, 0x51, 0x8d, 0x8d,
  0x87, 0x6a, 0x69, 0x5e, 0x79, 0x86, 0x9e, 0x8a, 0x81, 0xa6, 0x75, 0x70,
  0x7b, 0x65, 0x89, 0xa0, 0x84, 0xae, 0x8a, 0x86, 0x79, 0x91, 0x9b, 0x77,
  0x6e, 0x76, 0xaa, 0xaa, 0x80, 0xaf, 0x7a, 0xa5, 0x7e, 0x92, 0x8e, 0x98,
  0x82, 0x85, 0x95, 0x9c, 0x8f, 0x7e, 0x7b, 0x64, 0x83, 0x65, 0xab, 0x7b,
  0x64, 0x94, 0x83, 0x7d, 0x8d, 0x69, 0x9a, 0x78, 0x71, 0x9c, 0x87, 0x7a,
  0x8f, 0x67, 0x96, 0x67, 0x5c, 0x66, 0x79, 0x9f, 0xa0, 0x83, 0x82, 0xc0,
  0x78, 0x96, 0x6d, 0xa4, 0xa2, 0x86, 0x96, 0xc2, 0x98, 0x78, 0xa6, 0x7d,
  0x3a, 0x4f, 0x9f, 0x75, 0x44, 0x80, 0x70, 0x6d, 0x1e, 0x82, 0xcd, 0x7a,
  0x72, 0x67, 0x5e, 0x62, 0x77, 0x7f, 0x7e, 0x49, 0x95, 0x8a, 0x45, 0x3a,
  0x42, 0x4d, 0x72, 0x5f, 0x6c, 0x8c, 0x53, 0x01, 0x6c, 0x8d, 0xa9, 0x76,
  0x77, 0xa7, 0x59, 0x12, 0x78, 0x52, 0xbf, 0x67, 0x8b, 0x8c, 0x79, 0x47,
  0x82, 0x4c, 0x97, 0x7e, 0x64, 0x6e, 0x6d, 0x5a, 0x7a, 0x63, 0x9c, 0x61,
  0x79, 0x7c, 0x5a, 0x4d, 0x62, 0x53, 0x94, 0x79, 0x7c, 0xb8, 0x60, 0x55,
  0xa2, 0x6d, 0xab, 0x82, 0x6b, 0x9c, 0x71, 0x7a, 0x73, 0x65, 0x87, 0x8e,
  0x98, 0x8b, 0x79, 0x73, 0x7c, 0x75, 0x8b, 0x6b, 0x78, 0x91, 0x64, 0x8a,
  0x98, 0x86, 0xa9, 0x72, 0x82, 0x94, 0x89, 0x84, 0x72, 0x9f, 0x90, 0x7f,
  0x67, 0x85, 0x8b, 0x70, 0x85, 0xa0, 0x8d, 0x74, 0x7b, 0x95, 0x87, 0x77,
  0x96, 0x7f, 0xa5, 0x81, 0x70, 0x6e, 0x55, 0x96, 0x7c, 0x75, 0xa0, 0x94,
  0x88, 0xa0, 0x61, 0x9c, 0x74, 0x67, 0x9a, 0x8b, 0x7b, 0x85, 0x54, 0xa3,
  0x90, 0x83, 0x99, 0x95, 0x7b, 0x65, 0x5f, 0x8c, 0xbe, 0x88, 0x85, 0xbd,
  0x90, 0x82, 0xa1, 0x81, 0x3b, 0x4b, 0x80, 0x97, 0x74, 0x98, 0x9a, 0x8e,
  0x37, 0x71, 0xbc, 0x64, 0x87, 0x7e, 0x93, 0x74, 0x58, 0x55, 0x8f, 0x66,
  0x8d, 0xa0, 0x56, 0x3e, 0x6e, 0x59, 0x7d, 0x4b, 0x7c, 0x82, 0x7f, 0x13,
  0xa2, 0x59, 0xa2, 0x69, 0x63, 0x75, 0x6e, 0x26, 0x6f, 0x67, 0x97, 0x62,
  0x61, 0x91, 0x66, 0x3e, 0xab, 0x70, 0x94, 0x8c, 0x54, 0x8e, 0x76, 0x60,
  0x8a, 0x69, 0x82, 0x78, 0x74, 0x7a, 0x72, 0x51, 0x6a, 0x6a, 0x99, 0x72,
  0x61, 0x78, 0x54, 0x54, 0x84, 0x76, 0x95, 0x7d, 0x79, 0x99, 0x72, 0x64,
  0x98, 0x8f, 0x95, 0xab, 0x66, 0x75, 0x72, 0x58, 0x80, 0x71, 0x8a, 0x6b,
  0x94, 0x94, 0x96, 0x6e, 0x64, 0x93, 0x80, 0x82, 0x8b, 0x92, 0xb1, 0x83,
  0x88, 0x7c, 0xaa, 0x8e, 0x60, 0x99, 0x6d, 0x84, 0x80, 0x7d, 0x7c, 0x74,
  0x57, 0xa1, 0x74, 0x80, 0x75, 0x78, 0xa2, 0x70, 0x76, 0x94, 0x66, 0x7e,
  0x61, 0x80, 0x93, 0x6f, 0x71, 0x70, 0x98, 0x8d, 0x8d, 0x8d, 0x90, 0x7d,
  0xa0, 0x88, 0x5b, 0x8d, 0x7f, 0x92, 0x66, 0xb0, 0x7f, 0x82, 0x7a, 0x70,
  0x81, 0x5b, 0x99, 0xae, 0x75, 0x8d, 0xb1, 0x94, 0x86, 0x72, 0x77, 0xa8,
  0x57, 0x7f, 0x95, 0x7a, 0x49, 0x6a, 0xac, 0x5e, 0x67, 0x59, 0x75, 0x8c,
  0x60, 0x43, 0x78, 0x5a, 0x6c, 0x8c, 0x61, 0x2a, 0x67, 0x8b, 0x68, 0x44,
  0x77, 0xa2, 0x64, 0x38, 0x87, 0x5a, 0xa6, 0x79, 0x88, 0xa4, 0x6e, 0x28,
  0x5f, 0x5d, 0xa3, 0x5c, 0x5c, 0x9c, 0x4b, 0x3b, 0x85, 0x7b, 0xae, 0x6f,
  0x78, 0xb0, 0x6c, 0x49, 0x84, 0x71, 0xa3, 0x5f, 0x73, 0x8f, 0x4f, 0x4e,
  0x79, 0x70, 0x9b, 0x8b, 0x7b, 0x7e, 0x65, 0x45, 0x84, 0x67, 0x9f, 0x8b,
  0x79, 0xb6, 0x5b, 0x4e, 0x7c, 0x72, 0x96, 0x99, 0x7a, 0xb3, 0x5b, 0x6b,
  0x73, 0x79, 0x78, 0x90, 0x93, 0x9e, 0x8a, 0x98, 0x87, 0x97, 0xa4, 0xa7,
  0x84, 0x97, 0xa0, 0x8b, 0x81, 0x8c, 0x9d, 0x7b, 0xa0, 0x63, 0x83, 0xac,
  0xa2, 0x7a, 0x99, 0x7d, 0x83, 0x78, 0x63, 0x8e, 0x74, 0x65, 0xa3, 0x6b,
  0x70, 0x81, 0x66, 0x5a, 0x8d, 0x84, 0x9e, 0x75, 0x7e, 0x7c, 0x91, 0x70,
  0x70, 0xa6, 0xaa, 0x7b, 0x7f, 0x86, 0x6c, 0x99, 0x7d, 0x9e, 0x90, 0xae,
  0x8c, 0x8b, 0x7c, 0x7d, 0xad, 0x83, 0xa7, 0xb5, 0x5a, 0x6e, 0xb3, 0x6d,
  0x86, 0x80, 0x81, 0x6a, 0x59, 0x86, 0x76, 0x6d, 0x5c, 0x6a, 0xa9, 0x75,
  0x81, 0x6e, 0x7e, 0x72, 0x8b, 0x7b, 0x7a, 0x62, 0x63, 0xa1, 0x7c, 0x35,
  0x68, 0x71, 0x73, 0x3a, 0x79, 0x88, 0x78, 0x14, 0x77, 0x52, 0x94, 0x7a,
  0x70, 0x9a, 0x72, 0x34, 0x90, 0xa1, 0x8d, 0x80, 0x7f, 0x9a, 0x4b, 0x4d,
  0x72, 0x7f, 0x81, 0x75, 0xac, 0x9b, 0x77, 0x51, 0x95, 0x6b, 0xa6, 0x4a,
  0x7f, 0x86, 0x3f, 0x68, 0x98, 0x57, 0x8b, 0x85, 0x54, 0x85, 0x78, 0x4b,
  0x71, 0x65, 0x9d, 0xa3, 0x59, 0xa9, 0x58, 0x75, 0x88, 0x61, 0x8c, 0xb9,
  0x89, 0x65, 0x85, 0x84, 0x88, 0x5d, 0x85, 0x7e, 0x8d, 0x8c, 0x79, 0x94,
  0x78, 0x7b, 0x8f, 0x9b, 0x63, 0x70, 0x8b, 0x84, 0x7e, 0xb2, 0x9c, 0x94,
  0xb1, 0x74, 0xae, 0x86, 0x7a, 0x83, 0x7e, 0x6c, 0x81, 0x91, 0x89, 0x70,
  0x99, 0x89, 0xa5, 0x75, 0x86, 0x6b, 0x52, 0x82, 0x77, 0x6f, 0x85, 0x56,
  0x66, 0x7f, 0x6c, 0x94, 0x64, 0x7e, 0xa0, 0x5f, 0x7f, 0xb1, 0x4e, 0x82,
  0x81, 0x66, 0x94, 0xb3, 0x88, 0x63, 0x67, 0x78, 0xa9, 0x7b, 0x99, 0xb1,
  0x83, 0x90, 0x9e, 0x9e, 0x6e, 0x76, 0x97, 0x5d, 0x79, 0x6f, 0x7d, 0x87,
  0x66, 0x78, 0xc4, 0x78, 0xa2, 0x82, 0x71, 0x79, 0x65, 0x71, 0x7c, 0x53,
  0x7d, 0x8f, 0x55, 0x3d, 0x4e, 0x7b, 0x7b, 0x4b, 0x83, 0xa2, 0x65, 0x17,
  0x71, 0x61, 0x8e, 0x7f, 0xa0, 0x89, 0x57, 0x21, 0x88, 0x78, 0xb6, 0x3d,
  0x68, 0x82, 0x39, 0x24, 0x90, 0x52, 0x9d, 0x57, 0x69, 0x81, 0x65, 0x2d,
  0x77, 0x5e, 0x7a, 0x44, 0x85, 0x57, 0x4b, 0x54, 0x88, 0x4f, 0x80, 0x6d,
  0x83, 0x78, 0x81, 0x53, 0x9f, 0x9c, 0xa7, 0x6f, 0x77, 0x79, 0x83, 0x49,
  0xa3, 0x69, 0x7d, 0x92, 0x8a, 0xa2, 0x8f, 0x70, 0x72, 0x5b, 0x95, 0x7f,
  0x82, 0x8f, 0x91, 0x68, 0x8c, 0xab, 0xb2, 0xa2, 0x97, 0x75, 0x93, 0x8b,
  0x89, 0xa8, 0x88, 0x9b, 0x7c, 0x8a, 0x77, 0x6e, 0x81, 0x7a, 0x88, 0x5d,
  0x8f, 0x82, 0x67, 0x88, 0x73, 0x72, 0x7a, 0x83, 0x70, 0x85, 0x72, 0x96,
  0x9d, 0x69, 0xa2, 0x6c, 0x6b, 0x80, 0x76, 0x9b, 0x73, 0x6e, 0xa2, 0x6a,
  0x77, 0x75, 0x98, 0xa2, 0xa1, 0x67, 0x8c, 0xac, 0x7c, 0x93, 0x7c, 0x82,
  0xb7, 0x9c, 0x9b, 0xca, 0x87, 0x88, 0xd2, 0x5c, 0x6a, 0x82, 0x9e, 0x87,
  0x4a, 0x71, 0x9a, 0x74, 0x53, 0x8a, 0xb7, 0xa4, 0x80, 0x82, 0x67, 0x68,
  0x59, 0x76, 0x8a, 0x5d, 0x3b, 0x80, 0x4a, 0x38, 0x6a, 0x1c, 0xab, 0x4c,
  0x55, 0x77, 0x46, 0x44, 0x84, 0x75, 0x81, 0x8e, 0x7a, 0x7c, 0x40, 0x30,
  0x91, 0x74, 0x84, 0x74, 0x70, 0x96, 0x43, 0x6f, 0x71, 0x5b, 0x88, 0x6f,
  0x92, 0x86, 0x6c, 0x6a, 0x97, 0x4f, 0x78, 0x4e, 0x65, 0xa0, 0x34, 0x59,
  0x5f, 0x76, 0x84, 0x8a, 0x44, 0xb8, 0x67, 0x65, 0x78, 0x52, 0x86, 0x77,
  0x75, 0x86, 0x6a, 0x5b, 0x83, 0x58, 0x79, 0x8d, 0x92, 0x90, 0x88, 0x89,
  0x87, 0x6d, 0x90, 0x68, 0x4f, 0x64, 0x64, 0x9f, 0x63, 0x70, 0xab, 0xbc,
  0x92, 0xa3, 0x7c, 0x9b, 0xae, 0x97, 0x99, 0x89, 0x91, 0x7f, 0x80, 0x7b,
  0x95, 0x96, 0x96, 0x6a, 0x99, 0xb3, 0x68, 0x80, 0x99, 0x81, 0x90, 0x3e,
  0x5f, 0xb5, 0x67, 0x8c, 0x7a, 0x7c, 0x8c, 0x87, 0x66, 0xa0, 0x4e, 0x77,
  0x88, 0x7d, 0x8a, 0x85, 0x90, 0x9e, 0x61, 0x92, 0x81, 0x8f, 0x8b, 0xba,
  0x79, 0xa6, 0x86, 0x80, 0xac, 0x78, 0x9c, 0xc3, 0x7e, 0x86, 0xd4, 0x61,
  0x61, 0xc8, 0xa3, 0xb0, 0x5e, 0x8f, 0xa8, 0xe1, 0x71, 0x99, 0x94, 0xb1,
  0x4e, 0x87, 0xaa, 0x9b, 0x7c, 0x9a, 0x5b, 0xa2, 0x3f, 0x9b, 0x8f, 0xb2,
  0x96, 0x6f, 0x82, 0x9b, 0x25, 0x6c, 0x78, 0xb1, 0xa0, 0x7d, 0x59, 0xd9,
  0x6d, 0x82, 0x77, 0x99, 0xaf, 0x77, 0x7a, 0xb5, 0x4f, 0x85, 0x90, 0xb5,
  0xac, 0x87, 0x69, 0x9a, 0x8c, 0x8b, 0x9e, 0xa4, 0x87, 0x7f, 0x7e, 0x85,
  0x67, 0x79, 0x89, 0xb9, 0x9c, 0x6c, 0x52, 0xa4, 0x6f, 0x96, 0x76, 0xa2,
  0xac, 0x72, 0x7b, 0xbd, 0x51, 0xa0, 0x96, 0xc0, 0x86, 0x75, 0x6f, 0x8d,
  0x5b, 0x7e, 0xaa, 0xb1, 0x8f, 0x62, 0x78, 0x98, 0x6e, 0x7d, 0x92, 0xb4,
  0x98, 0x94, 0x88, 0xba, 0x95, 0x7a, 0x8c, 0xce, 0xa2, 0x9d, 0x64, 0x9f,
  0x69, 0x7c, 0x87, 0x9e, 0xab, 0xa5, 0x8d, 0x8c, 0x88, 0x9c, 0x86, 0x91,
  0x94, 0x67, 0x85, 0x8e, 0x86, 0x92, 0x90, 0xad, 0xa2, 0x69, 0x8b, 0x6d,
  0x87, 0x9b, 0xac, 0x96, 0xa7, 0x81, 0x9a, 0x9d, 0x8a, 0x7e, 0xb3, 0xd0,
  0x9b, 0x75, 0x84, 0xab, 0x5f, 0x69, 0xa3, 0x7e, 0xba, 0x72, 0x77, 0xd8,
  0x7c, 0xa5, 0xe6, 0x9d, 0xa6, 0xb9, 0xc8, 0xbf, 0x5e, 0xa2, 0x87, 0xd0,
  0x8c, 0x9d, 0xf0, 0xc6, 0x44, 0x92, 0xb0, 0xe2, 0x5f, 0xc3, 0x99, 0xa9,
  0x62, 0x73, 0x90, 0xd3, 0x98, 0x90, 0xbe, 0xb7, 0x45, 0x5f, 0x99, 0xc9,
  0xa0, 0x96, 0xa4, 0xeb, 0x5c, 0x6e, 0xa4, 0xdc, 0x98, 0x8a, 0x9b, 0xc4,
  0x75, 0x74, 0xb1, 0xe3, 0x7c, 0x88, 0x88, 0xb5, 0x69, 0x9e, 0x97, 0xdc,
  0x86, 0x9f, 0x88, 0xa6, 0x74, 0x6b, 0xb4, 0xc7, 0x87, 0x6e, 0x9f, 0xd3,
  0x53, 0x8a, 0x89, 0xd1, 0x8a, 0x7a, 0x82, 0xc6, 0x6a, 0x7e, 0xb7, 0xd1,
  0x86, 0x98, 0x75, 0xc2, 0x66, 0x8a, 0xc3, 0xe3, 0x9c, 0x76, 0x80, 0xac,
  0x91, 0x8a, 0xa0, 0xd3, 0x99, 0x7c, 0x98, 0xdd, 0x7f, 0x78, 0xbc, 0xce,
  0x9d, 0xb7, 0x8c, 0xb5, 0x6a, 0x8a, 0xb2, 0xdd, 0x7c, 0x7b, 0x8e, 0xa9,
  0x62, 0x84, 0xa0, 0xb7, 0x85, 0xae, 0x6f, 0xb1, 0x95, 0x9c, 0x84, 0xdd,
  0x84, 0xac, 0x7d, 0xa6, 0x8f, 0x92, 0xc7, 0xd1, 0x9f, 0x90, 0x7c, 0xa1,
  0x9e, 0x74, 0xad, 0xca, 0xae, 0x82, 0x7e, 0xbc, 0x82, 0x65, 0xb2, 0xcc,
  0xd3, 0x87, 0x6f, 0xda, 0x67, 0x79, 0xd9, 0xca, 0xaf, 0x69, 0x77, 0x81,
  0x9d, 0x83, 0x73, 0x82, 0xa1, 0x61, 0x93, 0x81, 0x52, 0xa5, 0x63, 0x77,
  0x88, 0x80, 0x7f, 0x80, 0x7c, 0xb1, 0x67, 0x80, 0x53, 0x96, 0x71, 0x96,
  0x67, 0x8d, 0x89, 0x7d, 0x58, 0x80, 0x91, 0x7b, 0x84, 0x8c, 0x7c, 0x76,
  0x6f, 0x61, 0x92, 0xa8, 0x6f, 0x6a, 0x85, 0x62, 0x8e, 0x88, 0x90, 0x88,
  0x9d, 0x98, 0x97, 0x71, 0x95, 0x78, 0x66, 0x9e, 0x76, 0x7a, 0x8e, 0x88,
  0x6e, 0xa2, 0x97, 0x53, 0x6e, 0x8e, 0x99, 0x70, 0x6d, 0x73, 0x6b, 0x76,
  0x87, 0x67, 0x67, 0x6e, 0x70, 0x81, 0x69, 0x8a, 0x6f, 0x7a, 0x78, 0x7f,
  0x82, 0x66, 0x91, 0x62, 0x75, 0xb0, 0x6e, 0x8a, 0x67, 0x63, 0x8a, 0x64,
  0x55, 0x9c, 0x8c, 0xa2, 0x5b, 0x84, 0xa5, 0x79, 0xa5, 0x98, 0x79, 0x81,
  0x66, 0x59, 0x8f, 0x81, 0x99, 0xa6, 0x8a, 0x76, 0x7c, 0x74, 0x8e, 0x6a,
  0x93, 0x90, 0x73, 0x9f, 0x8d, 0x6f, 0x63, 0x94, 0x81, 0x68, 0x87, 0x60,
  0x69, 0x81, 0x6e, 0x7e, 0xa7, 0x93, 0x67, 0x9c, 0xaa, 0x8b, 0x6d, 0x70,
  0x7c, 0x67, 0x70, 0x6f, 0x7e, 0x76, 0x99, 0x9e, 0x7f, 0x8e, 0xbd, 0x71,
  0xaf, 0x71, 0x66, 0x67, 0x84, 0x95, 0x6c, 0x66, 0xbe, 0xb4, 0x51, 0x96,
  0x91, 0x76, 0x66, 0x9f, 0x9c, 0x8c, 0x74, 0x76, 0xa4, 0x9b, 0x8e, 0x9c,
  0x90, 0x73, 0x82, 0x76, 0x8e, 0x52, 0x7b, 0x7a, 0x6c, 0x7e, 0x8e, 0x9d,
  0x88, 0x9d, 0x6f, 0x65, 0x6d, 0x7e, 0x8b, 0x7a, 0x98, 0x7d, 0x80, 0x72,
  0x7d, 0x78, 0x60, 0x99, 0xa8, 0xa6, 0x71, 0x8e, 0x95, 0x8d, 0x91, 0x88,
  0x8a, 0x65, 0x89, 0x8a, 0x90, 0x62, 0x94, 0xa9, 0x67, 0x76, 0x7e, 0x85,
  0x97, 0x89, 0x70, 0x9b, 0x5f, 0x93, 0x68, 0x9c, 0x99, 0x8d, 0x85, 0x74,
  0x89, 0x8f, 0x7e, 0x90, 0x81, 0x82, 0x66, 0x75, 0x8a, 0x80, 0x78, 0x87,
  0x79, 0x79, 0x7c, 0x7d, 0x6c, 0x93, 0x8f, 0x97, 0x7e, 0x96, 0x76, 0x76,
  0x82, 0x82, 0x66, 0x5d, 0x68, 0x8f, 0x9a, 0x81, 0x9f, 0xa1, 0x86, 0x83,
  0x81, 0x9a, 0x7c, 0x83, 0x8a, 0x6e, 0x7a, 0x69, 0x79, 0x7b, 0x68, 0x7d,
  0x76, 0x94, 0x76, 0x64, 0x82, 0x78, 0x8f, 0x8b, 0x65, 0x98, 0x7a, 0x7b,
  0x6a, 0x8a, 0x95, 0x85, 0x64, 0x8f, 0xa6, 0x91, 0xa6, 0x94, 0x90, 0xc5,
  0x95, 0xa0, 0xca, 0x89, 0xb8, 0x9c, 0x60, 0x82, 0x8d, 0x77, 0x67, 0x5f,
  0xaf, 0x9a, 0x87, 0x79, 0x79, 0x5b, 0x6d, 0x7a, 0x99, 0x77, 0x97, 0x99,
  0x8b, 0x7c, 0x98, 0x87, 0x7c, 0x82, 0xa3, 0x9f, 0x73, 0x7f, 0x94, 0x98,
  0x71, 0x78, 0x72, 0x69, 0x93, 0x85, 0x84, 0x88, 0x8d, 0x86, 0xa1, 0x7f,
  0x8b, 0x7c, 0x72, 0x76, 0x77, 0x89, 0x63, 0x91, 0x6e, 0x92, 0x91, 0x8b,
  0x7c, 0x98, 0x91, 0x80, 0x83, 0x7e, 0x8c, 0x89, 0x85, 0x7a, 0x68, 0x75,
  0x73, 0x93, 0xa3, 0x7e, 0x88, 0x75, 0x7a, 0x92, 0x84, 0x69, 0x8e, 0x80,
  0x8a, 0x6b, 0x73, 0xa5, 0x8a, 0x8a, 0x82, 0x87, 0x83, 0x86, 0x7b, 0x90,
  0x8a, 0xa0, 0x77, 0xa4, 0x8b, 0xb1, 0x5c, 0x95, 0x81, 0x66, 0x71, 0x8c,
  0x85, 0x87, 0x8f, 0x7e, 0x8f, 0x80, 0x88, 0x8c, 0x70, 0x56, 0x86, 0x91,
  0x68, 0x92, 0x8e, 0x7e, 0x7a, 0x5b, 0x7c, 0x96, 0x81, 0xa7, 0x87, 0x78,
  0x86, 0x89, 0x5d, 0xa0, 0x77, 0x8a, 0x92, 0x90, 0x86, 0x8b, 0x82, 0x8f,
  0x90, 0x8a, 0x9d, 0x90, 0x88, 0x70, 0x91, 0xa5, 0x6e, 0x7e, 0xb0, 0x91,
  0x77, 0x84, 0x82, 0xd4, 0x74, 0x66, 0xc9, 0x8c, 0xac, 0x97, 0xa6, 0x6d,
  0xa4, 0x81, 0xa4, 0x6a, 0xa4, 0xa4, 0x63, 0x7b, 0x89, 0x53, 0xa6, 0x96,
  0x92, 0x7b, 0x95, 0x81, 0xa7, 0x64, 0x9c, 0x96, 0x6a, 0x8a, 0x6e, 0x8c,
  0x63, 0x6a, 0x92, 0x93, 0x72, 0x8c, 0x7c, 0x7f, 0xaa, 0x8b, 0x9a, 0x96,
  0x9b, 0x92, 0x5e, 0x9a, 0x76, 0x9d, 0x8e, 0x90, 0x99, 0x87, 0xa5, 0x8d,
  0x87, 0x96, 0x7e, 0x80, 0x80, 0x8a, 0x80, 0x88, 0x98, 0x81, 0x88, 0x9c,
  0x91, 0xa1, 0x69, 0x75, 0x88, 0x66, 0xac, 0x8b, 0x85, 0x7a, 0x70, 0xa2,
  0x98, 0x87, 0x95, 0x9a, 0x79, 0x69, 0x4d, 0xab, 0x93, 0x6c, 0xa9, 0x8f,
  0x90, 0x74, 0x69, 0x71, 0x91, 0xa9, 0x89, 0x8a, 0x7b, 0x6d, 0x6c, 0x6d,
  0x82, 0x79, 0x70, 0xa9, 0x87, 0x72, 0x89, 0xa1, 0x97, 0x84, 0x8c, 0x8c,
  0x78, 0x70, 0x6f, 0x92, 0x5f, 0x7a, 0x7c, 0x80, 0x90, 0x5b, 0x77, 0xa1,
  0x7b, 0xa9, 0x89, 0x83, 0x8c, 0x79, 0x98, 0x86, 0x69, 0x75, 0x7d, 0x9e,
  0x74, 0x96, 0x60, 0x9e, 0x89, 0x93, 0x86, 0x9d, 0x9d, 0x81, 0x80, 0xab,
  0x7e, 0x79, 0xbd, 0x72, 0x7e, 0x5e, 0x77, 0xc5, 0x90, 0x93, 0xc5, 0xad,
  0x9a, 0xab, 0x96, 0x85, 0xa3, 0x75, 0x78, 0xa2, 0xa6, 0x97, 0x66, 0xa8,
  0xa2, 0xa2, 0x87, 0x95, 0x76, 0x90, 0x9f, 0x76, 0x90, 0x84, 0x98, 0x9c,
  0x5a, 0x81, 0x80, 0x9f, 0x98, 0x9b, 0x81, 0x9a, 0x70, 0x77, 0x7f, 0x74,
  0x90, 0x92, 0x92, 0x8e, 0x94, 0x81, 0x8b, 0xaa, 0x72, 0x83, 0x85, 0x91,
  0xa5, 0x8b, 0x6f, 0x8c, 0x95, 0x71, 0x89, 0x8b, 0x90, 0x9d, 0x6c, 0x9e,
  0x92, 0x97, 0xb7, 0x85, 0x5a, 0xac, 0x89, 0x90, 0x92, 0xa7, 0xb6, 0x97,
  0x88, 0x70, 0x55, 0x8e, 0x80, 0x93, 0xb0, 0x95, 0x57, 0x73, 0x65, 0x8b,
  0x6d, 0x7b, 0xbb, 0x83, 0x7c, 0x83, 0x81, 0x99, 0x6a, 0x71, 0x9e, 0xa5,
  0x66, 0x6f, 0x64, 0x77, 0x7a, 0x69, 0x88, 0x9c, 0x8a, 0x99, 0x72, 0x7a,
  0x6e, 0x74, 0x89, 0x9d, 0x87, 0x70, 0x6f, 0xad, 0x81, 0xb0, 0x7e, 0x8b,
  0x8e, 0x7e, 0x7c, 0x94, 0x5d, 0xa0, 0x81, 0x89, 0x97, 0x7c, 0x5d, 0x9b,
  0x5d, 0x8c, 0x8b, 0x92, 0x7f, 0x82, 0x8b, 0x9d, 0x73, 0x85, 0x95, 0x7f,
  0x7a, 0x8f, 0x6b, 0x97, 0x85, 0x99, 0xb7, 0x90, 0x80, 0x6a, 0x97, 0xcb,
  0x62, 0xae, 0xb4, 0x96, 0xa8, 0x88, 0x97, 0x8c, 0x97, 0x87, 0x71, 0x88,
  0xad, 0x90, 0x6a, 0x6b, 0x92, 0x63, 0xa5, 0x98, 0x7c, 0xad, 0x88, 0x8b,
  0xc4, 0x86, 0xb4, 0x7c, 0x5a, 0x96, 0x87, 0xac, 0x8b, 0x84, 0xa9, 0x97,
  0x78, 0x82, 0x80, 0x90, 0x82, 0x97, 0xa8, 0x83, 0x81, 0x91, 0x89, 0x9b,
  0x8f, 0x9e, 0x83, 0x8b, 0xa8, 0xab, 0x7f, 0xbb, 0xc3, 0x79, 0x85, 0x84,
  0x8b, 0x8a, 0x9a, 0xa6, 0xaa, 0x7b, 0xab, 0x84, 0x6b, 0x8a, 0x65, 0xac,
  0x77, 0x77, 0xac, 0x90, 0x7a, 0x7f, 0x5d, 0x9f, 0x72, 0x51, 0xa4, 0x7c,
  0x64, 0x7c, 0x64, 0xbc, 0x70, 0x8c, 0xc4, 0x8b, 0x83, 0x9a, 0x61, 0xad,
  0x7a, 0xa8, 0xbd, 0x83, 0x68, 0x74, 0x77, 0x9c, 0x84, 0x74, 0xa0, 0x79,
  0x81, 0x65, 0x61, 0xa7, 0x7d, 0x7d, 0xa2, 0x88, 0x83, 0x83, 0x63, 0xa2,
  0x5e, 0x86, 0x90, 0x72, 0x9f, 0x7a, 0x65, 0xbd, 0x70, 0xa4, 0x9a, 0x7f,
  0xad, 0x87, 0x68, 0xb1, 0x7b, 0x96, 0x98, 0x94, 0x8d, 0x75, 0x75, 0x9a,
  0x75, 0x68, 0x9c, 0x72, 0x88, 0x91, 0x9a, 0x9e, 0x8c, 0x7c, 0x9c, 0x9b,
  0x79, 0x7b, 0x7b, 0xc5, 0x84, 0x76, 0xb3, 0x99, 0xa2, 0x9f, 0x60, 0x90,
  0x93, 0x92, 0x77, 0x89, 0x93, 0x98, 0x93, 0x93, 0xaa, 0x6d, 0xb5, 0x89,
  0x8b, 0xbb, 0x73, 0xac, 0xa7, 0x6e, 0xb9, 0x79, 0x4c, 0x78, 0x55, 0xa1,
  0x7a, 0xa8, 0x8a, 0x7b, 0x75, 0x88, 0x8a, 0xa0, 0x6f, 0x77, 0x8b, 0x88,
  0x90, 0x84, 0x88, 0x9a, 0x95, 0x7f, 0x73, 0x8b, 0xc3, 0xa6, 0x84, 0xab,
  0x96, 0x55, 0x7e, 0x85, 0xa2, 0xae, 0x6b, 0xb0, 0xa4, 0x72, 0xaf, 0x81,
  0x7d, 0xa1, 0x68, 0xa5, 0x86, 0xaa, 0xb8, 0x9b, 0x69, 0x87, 0x55, 0x79,
  0x84, 0x6c, 0xc2, 0x82, 0x73, 0x83, 0x5f, 0x91, 0x66, 0xa5, 0xcf, 0x6b,
  0x7d, 0x72, 0x4d, 0xa6, 0x7b, 0x84, 0xac, 0x90, 0x74, 0x75, 0x6f, 0xb1,
  0x70, 0x5c, 0xa4, 0x82, 0x9a, 0x81, 0x73, 0x9b, 0x74, 0xa5, 0x92, 0x64,
  0xac, 0x69, 0x81, 0x9c, 0x6f, 0x91, 0x85, 0x7b, 0xa5, 0x82, 0x83, 0xa0,
  0x70, 0x79, 0x86, 0x95, 0x9b, 0x5e, 0x62, 0xa4, 0x76, 0x8c, 0x9a, 0x99,
  0x9a, 0x66, 0x7d, 0x9c, 0xa2, 0x9e, 0x96, 0x70, 0x89, 0x77, 0x9d, 0x90,
  0x7b, 0x82, 0x7f, 0xa3, 0x8f, 0xa0, 0x85, 0xc4, 0x8d, 0x85, 0xb5, 0x91,
  0xaa, 0x91, 0x65, 0x5d, 0x85, 0x72, 0x85, 0x8f, 0xaf, 0x86, 0x7e, 0x9d,
  0x90, 0x67, 0x98, 0x9d, 0x77, 0xd1, 0x72, 0x9c, 0xa8, 0x8c, 0xb4, 0x9c,
  0x4f, 0x8c, 0x6b, 0xa1, 0x8f, 0x85, 0xad, 0x80, 0x5f, 0x8b, 0x7b, 0xa8,
  0x7c, 0x84, 0x9a, 0x83, 0x97, 0x8d, 0x8b, 0x93, 0x85, 0x74, 0x7a, 0x80,
  0xb0, 0x9e, 0x80, 0xb3, 0xb6, 0x5c, 0x8c, 0x7e, 0x7d, 0x8f, 0x84, 0xcb,
  0xaf, 0xa3, 0xa4, 0x7b, 0x67, 0x84, 0x7e, 0xa3, 0x89, 0x92, 0xb6, 0x90,
  0x8e, 0x8f, 0x4f, 0xa7, 0x7f, 0x59, 0xd0, 0x8a, 0x7d, 0x76, 0x5d, 0x8d,
  0x80, 0xa0, 0xd3, 0x73, 0x79, 0x95, 0x5c, 0xaa, 0x77, 0x9a, 0xac, 0x6d,
  0x73, 0x6c, 0x6d, 0xb3, 0x92, 0x94, 0x83, 0x8a, 0x93, 0x93, 0x69, 0xbd,
  0x62, 0x7e, 0x88, 0x6d, 0xb5, 0x8b, 0x81, 0xa6, 0x73, 0x72, 0x89, 0x98,
  0xa3, 0x7c, 0x6a, 0xa7, 0x88, 0xaa, 0x8d, 0x91, 0x94, 0x72, 0x7a, 0x9f,
  0x91, 0x56, 0xa4, 0x77, 0x94, 0x6a, 0x73, 0x98, 0x8a, 0x83, 0x9c, 0x69,
  0x8f, 0x73, 0x92, 0x84, 0x82, 0x9a, 0x92, 0xa7, 0x93, 0x8a, 0x8b, 0xc4,
  0x97, 0x52, 0xaf, 0x97, 0xa8, 0x95, 0x69, 0x78, 0xa6, 0x87, 0x8a, 0x7f,
  0x90, 0x72, 0x71, 0xa5, 0x7e, 0x74, 0xb3, 0x87, 0x7b, 0xb7, 0x84, 0x9c,
  0xb7, 0x76, 0xa1, 0x9b, 0x57, 0x87, 0x75, 0xbb, 0x77, 0x79, 0x9e, 0x68,
  0x88, 0x7c, 0x97, 0xac, 0x8a, 0x8a, 0x86, 0x93, 0xa2, 0x86, 0x6c, 0xab,
  0x73, 0x91, 0x6e, 0x8f, 0xc1, 0xb9, 0x8d, 0xa8, 0xac, 0x72, 0x82, 0x78,
  0xa1, 0x90, 0x74, 0xd6, 0x99, 0x86, 0xa4, 0x84, 0x73, 0x80, 0x6c, 0x99,
  0x79, 0x80, 0xa7, 0x7e, 0x9a, 0x96, 0x55, 0xaf, 0x83, 0x8f, 0xa5, 0x76,
  0x88, 0x92, 0x4a, 0x9a, 0x75, 0x9b, 0xe2, 0x8b, 0x81, 0x94, 0x58, 0x8d,
  0x84, 0x79, 0xa7, 0x6f, 0x8d, 0x79, 0x75, 0xba, 0x7a, 0x93, 0x89, 0x76,
  0x94, 0x80, 0x81, 0xa8, 0x73, 0x88, 0x85, 0x89, 0xa5, 0x81, 0x80, 0xa1,
  0x81, 0x9b, 0x95, 0x7c, 0xa5, 0x81, 0x82, 0xa5, 0x6c, 0x6c, 0x8e, 0x7e,
  0x94, 0x58, 0x6c, 0x94, 0x68, 0x51, 0x8c, 0x86, 0x93, 0x6b, 0x6e, 0xa5,
  0x7c, 0xa4, 0xa6, 0x81, 0x94, 0x90, 0x92, 0x8f, 0x7a, 0x7e, 0x95, 0xaa,
  0x74, 0x71, 0x7c, 0xc0, 0x94, 0x90, 0xad, 0xa7, 0xa6, 0x85, 0x73, 0x7f,
  0x94, 0x9f, 0x6e, 0x8b, 0xa6, 0x74, 0x7e, 0xb3, 0x99, 0x79, 0xb5, 0xa0,
  0x6f, 0xc6, 0x83, 0xb3, 0xb3, 0x86, 0xac, 0x7c, 0x71, 0x99, 0x79, 0xbd,
  0x97, 0x63, 0xad, 0x93, 0x7a, 0x92, 0x82, 0xbe, 0x7f, 0x6a, 0xae, 0x8a,
  0x9a, 0x92, 0x7c, 0xa2, 0x67, 0x8a, 0x7b, 0x88, 0x9c, 0xab, 0x7f, 0xbc,
  0x9c, 0x7f, 0x90, 0x7b, 0xa7, 0xa5, 0x7b, 0xc3, 0xa3, 0x8b, 0xa3, 0x8e,
  0x6c, 0x99, 0x88, 0xaf, 0x86, 0xb0, 0xbb, 0x86, 0x90, 0x9c, 0x65, 0x9b,
  0x7f, 0x91, 0xbd, 0x6e, 0x7e, 0x89, 0x66, 0xa0, 0x80, 0x93, 0xd9, 0x6b,
  0x90, 0x95, 0x48, 0x8f, 0x89, 0xa7, 0xb4, 0x73, 0x88, 0x8b, 0x84, 0xbe,
  0x78, 0x5f, 0x76, 0x78, 0x89, 0x73, 0x7b, 0x9f, 0x7a, 0x73, 0x88, 0x81,
  0xb1, 0x72, 0x88, 0xad, 0x71, 0x5a, 0x8e, 0x95, 0x9e, 0x86, 0x77, 0x9b,
  0x7b, 0x83, 0x86, 0x73, 0xa2, 0x6e, 0x6b, 0xa2, 0x67, 0x9a, 0xa3, 0x78,
  0x96, 0x65, 0x7e, 0xb4, 0x7d, 0x8b, 0x89, 0x85, 0x9a, 0x9b, 0x83, 0x86,
  0x81, 0x6c, 0x8f, 0x98, 0x81, 0x85, 0x70, 0xc1, 0x93, 0x7f, 0x9e, 0x94,
  0x99, 0xa2, 0x7d, 0x89, 0x9a, 0x8a, 0x99, 0x6a, 0x99, 0x7e, 0x6c, 0xb6,
  0x98, 0x55, 0xa8, 0x83, 0x8a, 0xbd, 0x85, 0xa8, 0xb3, 0x8b, 0xb3, 0x9b,
  0x5a, 0x86, 0x7c, 0xce, 0x8f, 0xb2, 0x85, 0x81, 0x7b, 0x82, 0x85, 0xab,
  0x8b, 0x7c, 0x9a, 0x92, 0xa1, 0x79, 0x81, 0x9c, 0x85, 0x69, 0x7f, 0x8a,
  0xb4, 0xb5, 0x80, 0xb7, 0xae, 0x9a, 0x8e, 0x75, 0xad, 0x9f, 0x97, 0xb6,
  0xa1, 0x89, 0xb2, 0x7a, 0x7a, 0x9e, 0x78, 0xb4, 0x84, 0x86, 0xb1, 0x75,
  0x7b, 0xaa, 0x7d, 0x9a, 0x8d, 0x72, 0xc7, 0x72, 0x7b, 0x80, 0x55, 0x8d,
  0x62, 0x93, 0xd0, 0x7c, 0x97, 0x84, 0x51, 0x98, 0x84, 0x8d, 0xa0, 0x61,
  0x93, 0x81, 0x7e, 0xbd, 0x81, 0x68, 0x67, 0x79, 0x93, 0x8d, 0x95, 0xab,
  0x78, 0x61, 0x96, 0x74, 0xba, 0x8f, 0x73, 0xa7, 0x72, 0x75, 0x89, 0x93,
  0x9c, 0x8c, 0x80, 0xb4, 0x7c, 0x87, 0x86, 0x77, 0x88, 0x6e, 0x62, 0xa7,
  0x72, 0x83, 0x7e, 0x6c, 0xaa, 0x48, 0x71, 0xb0, 0x7b, 0x98, 0x93, 0x83,
  0x9c, 0x74, 0x8b, 0x87, 0x7f, 0x7f, 0x90, 0xb3, 0x8d, 0x7c, 0x81, 0xb3,
  0x8f, 0x5a, 0x9c, 0x97, 0x92, 0x8a, 0x85, 0x87, 0xa7, 0x99, 0x8d, 0x9b,
  0x8a, 0x6f, 0x81, 0xd6, 0x83, 0x99, 0xa3, 0x96, 0x85, 0xb5, 0x7d, 0x90,
  0xaf, 0x86, 0xa8, 0x9b, 0x79, 0xa7, 0x8a, 0xbf, 0x94, 0x6d, 0xa5, 0x6a,
  0x6e, 0x80, 0xa1, 0xa2, 0x79, 0x7d, 0xa4, 0x88, 0x8a, 0x8e, 0x8a, 0xae,
  0x95, 0x76, 0x84, 0x83, 0xc2, 0xa1, 0x75, 0xc5, 0x99, 0x8c, 0x8e, 0x7b,
  0xa3, 0x9a, 0xa5, 0xa8, 0x9c, 0x76, 0xa1, 0x85, 0x71, 0x81, 0x73, 0xac,
  0x86, 0x8f, 0xa5, 0x74, 0x94, 0x87, 0x7e, 0xa2, 0x81, 0x6a, 0xbe, 0x6e,
  0x7f, 0x87, 0x51, 0xab, 0x77, 0xa3, 0xce, 0x60, 0x74, 0x9b, 0x5e, 0xa0,
  0x70, 0xa1, 0x9d, 0x68, 0x7f, 0x69, 0x79, 0xb6, 0x77, 0x60, 0x86, 0x7b,
  0x9f, 0x7c, 0x77, 0xac, 0x81, 0x7a, 0x81, 0x76, 0x97, 0x92, 0x81, 0xad,
  0x6b, 0x60, 0x90, 0x88, 0xaa, 0x81, 0x7d, 0x9d, 0x84, 0x94, 0x88, 0x70,
  0x9f, 0x83, 0x79, 0xad, 0x77, 0x60, 0x97, 0x7d, 0x9d, 0x57, 0x7d, 0xa8,
  0x8f, 0x78, 0x8a, 0x7d, 0x8a, 0x76, 0x74, 0x87, 0x8f, 0x81, 0x87, 0x99,
  0x79, 0x96, 0x79, 0xb1, 0x86, 0x71, 0x9c, 0x8a, 0x9a, 0x7d, 0x82, 0x8a,
  0x8f, 0x66, 0x5e, 0x71, 0x90, 0x87, 0x92, 0xa8, 0x99, 0x95, 0x8b, 0xa4,
  0x7c, 0xc1, 0x8b, 0xb2, 0x99, 0x74, 0x9d, 0x8a, 0x77, 0x99, 0x84, 0xb5,
  0xa0, 0x7b, 0x95, 0x7a, 0x6e, 0x7f, 0x90, 0x91, 0x86, 0x8b, 0xaf, 0x93,
  0x90, 0x7d, 0x86, 0xad, 0x86, 0x60, 0x7d, 0xa6, 0xb3, 0x8d, 0x93, 0xba,
  0x9d, 0xaa, 0x86, 0x75, 0xa3, 0x96, 0x95, 0xb0, 0xa7, 0x71, 0x94, 0x8b,
  0x7d, 0xa9, 0x67, 0xa6, 0x79, 0x83, 0xb4, 0x72, 0x8b, 0x90, 0x7d, 0xab,
  0x6e, 0x59, 0xbe, 0x75, 0x8a, 0x92, 0x5b, 0xb1, 0x7e, 0x83, 0xd6, 0x85,
  0x86, 0x7c, 0x76, 0xa6, 0x85, 0x7d, 0xb6, 0x79, 0x8d, 0x5f, 0x7b, 0x9a,
  0x74, 0x6f, 0x81, 0x75, 0x99, 0x7d, 0x83, 0xa5, 0x5d, 0x7e, 0x8a, 0x8c,
  0x9a, 0x91, 0x8d, 0x9e, 0x76, 0x8d, 0x83, 0x7c, 0xa2, 0x73, 0x88, 0xa4,
  0x8e, 0x6c, 0x7f, 0x76, 0x9e, 0x73, 0x81, 0xab, 0x84, 0x62, 0x79, 0x86,
  0xa1, 0x67, 0x7c, 0xb3, 0x8b, 0x66, 0x8b, 0x96, 0x7e, 0x75, 0x85, 0x92,
  0x95, 0x79, 0x95, 0x9e, 0x88, 0xaa, 0x77, 0xad, 0x9a, 0x99, 0x82, 0xb3,
  0x9e, 0x86, 0x77, 0xa1, 0x9d, 0x72, 0x90, 0x7e, 0xa7, 0x65, 0x89, 0xd2,
  0x86, 0x84, 0x99, 0x83, 0x8b, 0x98, 0x72, 0x99, 0xae, 0x62, 0xa3, 0x97,
  0x63, 0x9a, 0x65, 0xc0, 0x96, 0x64, 0xaa, 0x7c, 0x6d, 0x9e, 0x8c, 0xa3,
  0x76, 0x74, 0x9f, 0x8a, 0x89, 0x66, 0x87, 0x9f, 0x97, 0x98, 0x7a, 0x8e,
  0x9e, 0xa4, 0x75, 0xbc, 0x8b, 0x9d, 0x84, 0x84, 0xa9, 0x9b, 0x8b, 0xb9,
  0x90, 0x85, 0xb1, 0x72, 0x77, 0x9e, 0x8b, 0xa9, 0x8b, 0x56, 0xa8, 0x81,
  0x87, 0x8f, 0x70, 0x9d, 0x8d, 0x68, 0xa6, 0x88, 0x70, 0x81, 0x53, 0xa1,
  0x80, 0x90, 0xcd, 0x78, 0x7b, 0x7c, 0x7b, 0xb2, 0x82, 0x75, 0x9d, 0x6d,
  0x83, 0x63, 0x61, 0xc0, 0x55, 0x51, 0xa4, 0x73, 0x8e, 0x84, 0x5c, 0x8e,
  0x5f, 0x51, 0x77, 0x8c, 0x93, 0x72, 0x86, 0x92, 0x73, 0x80, 0x83, 0x94,
  0xc6, 0x6c, 0x7e, 0xbd, 0x87, 0x62, 0x7f, 0x74, 0x9f, 0x8b, 0x81, 0xa2,
  0x83, 0x61, 0x9b, 0x7a, 0x8c, 0x67, 0x76, 0xa2, 0x6b, 0x74, 0x7c, 0x7e,
  0x7c, 0x71, 0x83, 0x8e, 0x7e, 0x5d, 0x8b, 0x8c, 0x7c, 0x94, 0x7a, 0xa8,
  0x84, 0x6f, 0x8d, 0x91, 0x89, 0x86, 0x87, 0xbc, 0xa2, 0x7f, 0x56, 0x78,
  0x89, 0x6f, 0x91, 0xba, 0x81, 0xa3, 0x91, 0x9b, 0x87, 0xa6, 0x7f, 0x95,
  0x9d, 0xa6, 0x89, 0x90, 0x59, 0x94, 0x6d, 0xb7, 0x86, 0x93, 0x8e, 0x7f,
  0x7a, 0x84, 0x91, 0x9a, 0x75, 0x97, 0x9b, 0x9c, 0x90, 0x7b, 0x6e, 0x8c,
  0x7d, 0x8a, 0x83, 0x9e, 0xb4, 0xa8, 0x91, 0xcb, 0x9e, 0x9a, 0x96, 0x7a,
  0x9c, 0x86, 0x91, 0xc0, 0x7f, 0x61, 0xa2, 0x7c, 0x73, 0x84, 0x7d, 0xb1,
  0x84, 0x5e, 0xa7, 0x6d, 0x83, 0x70, 0x75, 0x93, 0x73, 0xa8, 0xc6, 0x77,
  0x78, 0x81, 0x53, 0xac, 0x84, 0x8d, 0xdb, 0x70, 0x66, 0x80, 0x6f, 0xa1,
  0x79, 0x7a, 0xab, 0x80, 0x7a, 0x6c, 0x69, 0xa5, 0x69, 0x7e, 0x8e, 0x75,
  0xa4, 0x94, 0x7c, 0x9d, 0x7d, 0x6d, 0x88, 0x84, 0x8b, 0x84, 0x7b, 0x8e,
  0x66, 0x81, 0x8f, 0x80, 0x99, 0x7e, 0x6d, 0xa4, 0x7a, 0x96, 0x87, 0x7f,
  0x9e, 0x96, 0x94, 0xaa, 0x6d, 0x81, 0x82, 0x77, 0x91, 0x79, 0x85, 0xaf,
  0x80, 0x7b, 0xa5, 0x8a, 0x81, 0x75, 0x7a, 0x89, 0xa2, 0x4e, 0xa9, 0x75,
  0x79, 0x83, 0x89, 0xa8, 0x9c, 0x75, 0x85, 0x92, 0x9c, 0x94, 0x86, 0xb0,
  0xa2, 0x68, 0x68, 0x71, 0x90, 0x72, 0x99, 0xc8, 0x72, 0x7b, 0x80, 0x8b,
  0x66, 0xba, 0x8d, 0x8f, 0x9d, 0x92, 0xac, 0x96, 0x43, 0x9c, 0x7d, 0xb9,
  0x9b, 0x97, 0xa2, 0x87, 0x8a, 0x93, 0x89, 0xae, 0x76, 0x6e, 0xa6, 0x9d,
  0xa6, 0x7c, 0x81, 0x93, 0x78, 0x6a, 0x6a, 0x94, 0xb4, 0xac, 0x90, 0xbe,
  0x8b, 0x94, 0x7b, 0x8c, 0x99, 0x8d, 0x95, 0xb5, 0x8d, 0x68, 0x9a, 0x84,
  0x6b, 0x77, 0x7d, 0xae, 0x80, 0xaf, 0xb2, 0x88, 0x6d, 0x8e, 0x7b, 0x93,
  0x85, 0x69, 0xa8, 0x88, 0x6d, 0x88, 0x53, 0x95, 0x99, 0x82, 0xd1, 0x75,
  0x62, 0x84, 0x69, 0x99, 0x67, 0x5a, 0xa7, 0x64, 0x8c, 0x79, 0x6b, 0xac,
  0x6f, 0x84, 0x9b, 0x5c, 0x8c, 0x77, 0x70, 0x90, 0x69, 0x66, 0x7b, 0x8f,
  0x90, 0x73, 0x83, 0xa0, 0x73, 0x56, 0x83, 0x84, 0xaf, 0x78, 0x88, 0x95,
  0x6c, 0x75, 0x88, 0x76, 0xa2, 0x87, 0x89, 0xa7, 0x7b, 0x5b, 0x76, 0x7e,
  0x8f, 0x66, 0x91, 0x9d, 0x87, 0x7c, 0x8f, 0xa9, 0x92, 0x72, 0x81, 0x8f,
  0x7e, 0x61, 0x89, 0x79, 0x87, 0x61, 0x8d, 0xb9, 0x5f, 0x6d, 0x7f, 0x7c,
  0x95, 0x7d, 0x7d, 0xcd, 0x89, 0x9f, 0x7d, 0x6d, 0x90, 0x76, 0x74, 0xb9,
  0x8b, 0x68, 0x97, 0x9c, 0x83, 0xb0, 0x66, 0xa0, 0x84, 0x7c, 0x99, 0x8f,
  0x52, 0xa5, 0x7c, 0xb7, 0x9c, 0x7b, 0x9e, 0x85, 0x7a, 0x97, 0x94, 0x9d,
  0x6e, 0x62, 0x9d, 0x91, 0x8f, 0x68, 0xa5, 0xa0, 0x78, 0x98, 0x73, 0x92,
  0xa6, 0xb6, 0x89, 0xbb, 0xaa, 0x96, 0x8a, 0x81, 0x95, 0x7c, 0x7d, 0xc9,
  0x9b, 0x89, 0x94, 0x94, 0x74, 0x7c, 0x7a, 0xab, 0x81, 0x90, 0xab, 0x81,
  0x7a, 0x83, 0x70, 0x9b, 0x89, 0x4f, 0x9b, 0x80, 0x74, 0xa0, 0x6c, 0xa1,
  0x9d, 0x90, 0xc1, 0x88, 0x82, 0x79, 0x75, 0xa6, 0x7f, 0x5d, 0xa4, 0x78,
  0x91, 0x7c, 0x75, 0xb5, 0x7a, 0x51, 0x87, 0x8a, 0xa0, 0x7d, 0x73, 0x9e,
  0x7b, 0x5b, 0x7f, 0x8c, 0x94, 0x81, 0x82, 0xaf, 0x6f, 0x7c, 0x8b, 0x92,
  0x98, 0x90, 0x76, 0xad, 0x84, 0x5b, 0x8b, 0x76, 0x89, 0x7a, 0x93, 0xa5,
  0x80, 0x76, 0x6c, 0x8a, 0x82, 0x6c, 0x99, 0x9f, 0x7b, 0x48, 0x87, 0x9e,
  0x7e, 0x67, 0x8e, 0x9a, 0x88, 0x6c, 0x95, 0x76, 0x80, 0x74, 0x83, 0xa7,
  0x71, 0x61, 0x89, 0x8a, 0xac, 0x73, 0x85, 0xb9, 0x8d, 0x9e, 0x60, 0x6f,
  0x8a, 0x75, 0x88, 0xce, 0x64, 0x5a, 0x96, 0x9d, 0x7e, 0xb9, 0x96, 0x94,
  0x9c, 0x7b, 0x99, 0x92, 0x5e, 0x99, 0x72, 0xc7, 0x85, 0x6d, 0x88, 0x82,
  0x76, 0x86, 0x90, 0xa7, 0x8f, 0x9b, 0x79, 0x89, 0x9a, 0x8d, 0xa0, 0x9f,
  0x6e, 0x6d, 0x6c, 0x94, 0x8f, 0x89, 0xa0, 0xb4, 0x97, 0x5e, 0x8e, 0x83,
  0x95, 0x8c, 0x80, 0xa3, 0x8b, 0x9c, 0x9a, 0x7a, 0x7c, 0x7e, 0x78, 0xa7,
  0x8b, 0x74, 0xa2, 0x78, 0x8e, 0x84, 0x83, 0xbf, 0x80, 0x77, 0xa9, 0x7e,
  0x80, 0x79, 0x6e, 0xa3, 0x6f, 0x71, 0xb8, 0x78, 0x82, 0x82, 0x72, 0x94,
  0x76, 0x9c, 0x82, 0x7c, 0xa1, 0x6a, 0x74, 0xb5, 0x89, 0x68, 0x8c, 0x6f,
  0x81, 0x69, 0x64, 0x99, 0x54, 0x7f, 0x7c, 0x6d, 0x95, 0x89, 0x7c, 0x95,
  0x5a, 0x5c, 0x8c, 0x88, 0x83, 0x8d, 0x75, 0xa2, 0x6f, 0x83, 0x82, 0x70,
  0x99, 0x80, 0x8c, 0xa4, 0x77, 0x92, 0x6b, 0x88, 0x9a, 0x8b, 0x88, 0x8d,
  0x6d, 0x5f, 0x59, 0x9f, 0x6e, 0x73, 0x83, 0x7f, 0x8d, 0x62, 0x8b, 0x75,
  0x78, 0x71, 0x74, 0xa1, 0x8c, 0x49, 0x90, 0x7a, 0xa5, 0x7d, 0x7a, 0xbf,
  0x95, 0xa2, 0x67, 0x83, 0x96, 0x67, 0x86, 0xac, 0x76, 0x54, 0xa6, 0x8b,
  0x81, 0xc0, 0x97, 0xa8, 0x94, 0x90, 0xb2, 0xac, 0x45, 0xa0, 0x6d, 0xc5,
  0x8b, 0x91, 0x9a, 0x94, 0x7e, 0x8c, 0x7c, 0xc3, 0x87, 0x85, 0x8d, 0x85,
  0xad, 0x6e, 0x8d, 0xb6, 0x8c, 0x9e, 0x81, 0x84, 0xa0, 0xa1, 0x72, 0xc0,
  0x7c, 0x61, 0x79, 0x9e, 0xaa, 0x9e, 0x70, 0xb5, 0x85, 0x8a, 0x91, 0x8a,
  0x6c, 0x9b, 0x89, 0xab, 0x94, 0x5f, 0xa5, 0x7f, 0x77, 0x8b, 0x90, 0xc8,
  0x88, 0x7e, 0xa7, 0x82, 0x77, 0x86, 0x6d, 0xa1, 0x95, 0x88, 0xb0, 0x7a,
  0x86, 0x87, 0x81, 0x98, 0x84, 0x8b, 0x86, 0x7e, 0x87, 0x7a, 0x63, 0xa8,
  0x79, 0x57, 0x82, 0x6e, 0x8d, 0x73, 0x87, 0x86, 0x4f, 0x66, 0x8f, 0x8a,
  0x92, 0xa1, 0x76, 0xa4, 0x62, 0x8b, 0x85, 0xa2, 0x92, 0x86, 0x85, 0xb3,
  0x79, 0x5c, 0x68, 0x83, 0x89, 0x79, 0x8c, 0xa7, 0x85, 0x6b, 0x69, 0x85,
  0x8f, 0x83, 0x75, 0x96, 0x84, 0x6e, 0x66, 0x95, 0x74, 0x93, 0x88, 0x80,
  0x8f, 0x62, 0x91, 0x7d, 0x74, 0x9b, 0x7c, 0x9e, 0x69, 0x69, 0x94, 0x79,
  0xd1, 0x81, 0x74, 0xb1, 0x8c, 0x63, 0x8d, 0x73, 0xa2, 0x71, 0x7a, 0x99,
  0x68, 0x56, 0x91, 0x88, 0x8d, 0xb9, 0x80, 0x9e, 0x90, 0x64, 0xb3, 0xa2,
  0x64, 0x7d, 0x64, 0xb0, 0x83, 0x6f, 0xa2, 0x9a, 0x8f, 0x9d, 0xa1, 0xb3,
  0x6a, 0x7b, 0x9e, 0x92, 0x83, 0x82, 0xb9, 0x95, 0x74, 0x85, 0x6d, 0x8e,
  0xa4, 0x97, 0x81, 0xb8, 0x99, 0x68, 0x84, 0x82, 0x83, 0xa8, 0x9e, 0xa5,
  0x86, 0x67, 0x9a, 0x87, 0x60, 0x7e, 0x8c, 0xa5, 0x86, 0x6a, 0x8f, 0x7e,
  0x8e, 0x82, 0x85, 0xc1, 0x76, 0x8c, 0x8f, 0x80, 0x77, 0x90, 0x64, 0xae,
  0x87, 0x75, 0xbc, 0x8c, 0x5f, 0x86, 0x78, 0x9a, 0x71, 0x85, 0x8a, 0x76,
  0x99, 0x81, 0x86, 0xb1, 0x78, 0x6c, 0x65, 0x6a, 0x85, 0x7a, 0x89, 0x88,
  0x60, 0x74, 0x66, 0x9e, 0x94, 0x85, 0x6f, 0xb2, 0x60, 0x6a, 0x88, 0x95,
  0x92, 0x7c, 0x73, 0x8f, 0x57, 0x6f, 0x65, 0x82, 0x92, 0x73, 0x83, 0x9a,
  0x71, 0x77, 0x7d, 0x7d, 0x94, 0x8f, 0x90, 0xa3, 0x6a, 0x82, 0x6b, 0x93,
  0x78, 0x87, 0x6b, 0x83, 0x8e, 0x5a, 0x94, 0x63, 0x6e, 0x8e, 0x7f, 0x9f,
  0x57, 0x79, 0x98, 0x89, 0xc8, 0x7c, 0x83, 0xae, 0x85, 0x81, 0x6d, 0x8c,
  0xb5, 0x66, 0x77, 0xaa, 0x6d, 0x54, 0xaa, 0x90, 0x7c, 0xb7, 0x97, 0x9d,
  0x87, 0x87, 0x9c, 0xa0, 0x63, 0xa1, 0x70, 0xaf, 0x96, 0x7b, 0xa2, 0x95,
  0x82, 0x69, 0x84, 0xba, 0x79, 0x78, 0x96, 0x85, 0x79, 0x6f, 0x96, 0x92,
  0x77, 0x6f, 0x71, 0x7d, 0xa3, 0x94, 0x83, 0xbe, 0x81, 0x80, 0x99, 0x83,
  0x87, 0x91, 0x7e, 0xa2, 0x93, 0xaa, 0x8e, 0x86, 0x7b, 0x8e, 0x8e, 0xb0,
  0x6d, 0x8c, 0x90, 0x7f, 0x74, 0x8d, 0x94, 0xc4, 0x85, 0x89, 0x7d, 0x87,
  0x6b, 0x76, 0x68, 0xa2, 0x96, 0x7e, 0x97, 0x7f, 0x8f, 0x7f, 0x7a, 0x97,
  0x77, 0x8c, 0x7a, 0x7f, 0x8a, 0x8c, 0x86, 0xa8, 0x64, 0x62, 0x68, 0x73,
  0x89, 0x70, 0x78, 0x9a, 0x6b, 0x75, 0x87, 0x97, 0x7a, 0x75, 0x75, 0x9c,
  0x5e, 0x4e, 0x78, 0x85, 0x93, 0x82, 0x79, 0xab, 0x5d, 0x9c, 0x7f, 0x7e,
  0x80, 0x79, 0x84, 0x9c, 0x5d, 0x77, 0x6d, 0x72, 0x76, 0x89, 0x83, 0x82,
  0x7c, 0x71, 0x68, 0x91, 0x8a, 0x82, 0x75, 0x84, 0x84, 0x63, 0x6f, 0x76,
  0x69, 0x61, 0x85, 0x92, 0x82, 0x91, 0x8d, 0x7d, 0xd4, 0x9c, 0x69, 0xb1,
  0x92, 0x6f, 0x94, 0x85, 0xb3, 0x83, 0x80, 0xa5, 0x6a, 0x7f, 0xb3, 0xa1,
  0x8b, 0x97, 0x8a, 0xa7, 0x9a, 0x90, 0x94, 0xb3, 0x66, 0x9c, 0x7b, 0xb0,
  0x67, 0x8c, 0x8e, 0x8a, 0x7f, 0x98, 0x7a, 0xb4, 0x80, 0x6d, 0x7f, 0x7c,
  0x78, 0x80, 0x91, 0x88, 0x82, 0x7c, 0x86, 0x87, 0x9c, 0xaa, 0xa3, 0xab,
  0x82, 0x6d, 0x7d, 0x8c, 0x79, 0x9d, 0x95, 0xb2, 0x80, 0x68, 0x88, 0xa0,
  0x80, 0x89, 0x79, 0xc2, 0x7f, 0x8f, 0xa7, 0x8a, 0x7d, 0x77, 0x9d, 0x9f,
  0x7e, 0x64, 0x96, 0x7e, 0x60, 0x6c, 0x6c, 0xb5, 0x93, 0x8d, 0xa5, 0x82,
  0x78, 0x85, 0x7d, 0x94, 0x62, 0x6f, 0x8b, 0x7c, 0x71, 0x83, 0x8c, 0xa4,
  0x58, 0x76, 0x6c, 0x7a, 0x8c, 0x69, 0x69, 0x9e, 0x4a, 0x6b, 0x71, 0x8a,
  0x63, 0x7a, 0x56, 0xbb, 0x75, 0x7b, 0x70, 0x96, 0x89, 0x83, 0x6c, 0xb7,
  0x68, 0x78, 0x83, 0x8e, 0x7e, 0x7b, 0x81, 0xa6, 0x4e, 0x74, 0x78, 0x95,
  0x6a, 0x6e, 0x7c, 0x95, 0x6f, 0x56, 0x78, 0x9d, 0x92, 0x70, 0x7b, 0x92,
  0x93, 0x97, 0x84, 0x78, 0x7e, 0x6b, 0x67, 0xb2, 0x5c, 0x97, 0x9d, 0x6a,
  0xe0, 0x9b, 0x7d, 0x98, 0xae, 0x7c, 0xa3, 0x7b, 0xc4, 0x74, 0x74, 0x9c,
  0x67, 0x65, 0x93, 0x9f, 0x89, 0xc2, 0x9a, 0x9b, 0x88, 0x7c, 0xab, 0xb2,
  0x80, 0xc6, 0xa6, 0xb4, 0x90, 0x83, 0xb9, 0xac, 0x8f, 0x90, 0x84, 0xc3,
  0x80, 0xa9, 0x9c, 0x9f, 0x81, 0x78, 0x96, 0x9d, 0x6f, 0x85, 0x98, 0xaa,
  0x90, 0xbb, 0xb2, 0xc4, 0x84, 0x7f, 0x85, 0xb2, 0x7f, 0xad, 0x84, 0xb1,
  0x6a, 0x77, 0x8f, 0x9d, 0x60, 0xa2, 0x7f, 0xbc, 0x75, 0x83, 0xac, 0xb3,
  0x78, 0x91, 0x86, 0xce, 0x6f, 0x50, 0x9d, 0x9f, 0x74, 0x80, 0x5b, 0xa8,
  0x73, 0x9d, 0xae, 0x94, 0x8f, 0x76, 0x86, 0x9e, 0x7e, 0x83, 0x95, 0x94,
  0x69, 0x79, 0x71, 0xce, 0x6f, 0x85, 0x75, 0x85, 0x79, 0x83, 0x83, 0x90,
  0x5c, 0x6f, 0xa9, 0x8b, 0x84, 0x7e, 0x66, 0xb7, 0x63, 0x84, 0x96, 0xab,
  0x82, 0x97, 0x72, 0xa9, 0x8b, 0x4a, 0x98, 0x92, 0x61, 0x84, 0x64, 0x9d,
  0x66, 0x76, 0x9d, 0x8d, 0x8f, 0x8d, 0x80, 0xa3, 0x62, 0x72, 0x88, 0x83,
  0x8a, 0x96, 0x5a, 0xaa, 0x5f, 0x6f, 0x85, 0x70, 0x7d, 0x6f, 0x58, 0xa9,
  0x88, 0x93, 0xa0, 0x64, 0xa3, 0xb8, 0x81, 0x7d, 0xc7, 0x74, 0x6f, 0xba,
  0xbb, 0x89, 0x99, 0x79, 0x92, 0x7f, 0xa2, 0xb2, 0x9f, 0xb8, 0x7b, 0xa9,
  0xbd, 0x51, 0xd5, 0xc5, 0xa0, 0xe8, 0x7f, 0xcf, 0xbc, 0xb3, 0xba, 0xc5,
  0xa5, 0xb1, 0x7b, 0xb8, 0xb2, 0x8f, 0xb3, 0xad, 0x89, 0x98, 0x79, 0xae,
  0xb2, 0x5c, 0xa9, 0xc0, 0x99, 0xb2, 0xa3, 0xad, 0xa6, 0x75, 0x99, 0xba,
  0x78, 0xcb, 0x72, 0xbf, 0xae, 0x92, 0xa7, 0xae, 0x88, 0x9a, 0x7d, 0xca,
  0xa0, 0x67, 0xc8, 0xa9, 0x66, 0x98, 0x87, 0xc0, 0x8d, 0x7f, 0xc9, 0xaf,
  0x99, 0x7b, 0x72, 0xc4, 0x87, 0x73, 0xc8, 0xb1, 0x8a, 0x82, 0x4f, 0xa2,
  0x89, 0x56, 0x95, 0xa2, 0x62, 0x92, 0x78, 0xb6, 0x8a, 0x70, 0x9d, 0xb4,
  0x5f, 0x91, 0x8b, 0x99, 0x7d, 0x5e, 0x86, 0xac, 0x85, 0x84, 0x77, 0x99,
  0x92, 0x7c, 0xa7, 0xa2, 0x70, 0xa6, 0x79, 0xaf, 0x97, 0x7b, 0x8c, 0xa0,
  0x67, 0x74, 0x62, 0xaf, 0x83, 0x82, 0xab, 0x8d, 0x66, 0x97, 0x7c, 0x98,
  0x8e, 0x8f, 0x85, 0xa7, 0x92, 0x7e, 0x8d, 0x96, 0xad, 0x94, 0x82, 0x8c,
  0x7f, 0x8f, 0x6b, 0xb4, 0x6a, 0x9a, 0x9c, 0x79, 0xae, 0xb0, 0x58, 0x85,
  0xba, 0x8b, 0x87, 0x8f, 0x97, 0xa3, 0x7a, 0x64, 0xa8, 0x73, 0x9a, 0xb9,
  0x9c, 0xc5, 0x8f, 0x93, 0xc0, 0x7a, 0xa2, 0xcc, 0xa8, 0xdb, 0x93, 0xb2,
  0xc8, 0xaf, 0xbe, 0xa5, 0xa5, 0xb6, 0xa3, 0xae, 0xa7, 0x91, 0xa7, 0xae,
  0x87, 0x98, 0x88, 0xa0, 0xab, 0x97, 0x92, 0xc2, 0x82, 0xd0, 0x8b, 0x94,
  0xba, 0x8b, 0x8b, 0xb7, 0x79, 0xc3, 0x79, 0xb5, 0xc1, 0x9f, 0xa8, 0xa4,
  0x8f, 0xbe, 0xa1, 0xef, 0xaf, 0x8e, 0xad, 0xb4, 0x5f, 0xad, 0x79, 0xc9,
  0x92, 0x6a, 0xb5, 0xb5, 0x73, 0x93, 0x57, 0xb5, 0x8f, 0x78, 0xb2, 0xb6,
  0x90, 0x8f, 0x83, 0xb1, 0xb5, 0x91, 0x8b, 0x99, 0x89, 0x96, 0x62, 0xb0,
  0xa2, 0x6d, 0xa8, 0xa7, 0x68, 0x9e, 0x87, 0x8e, 0xa1, 0x7e, 0x76, 0xba,
  0x77, 0x9e, 0x98, 0x8a, 0x8f, 0x9a, 0x76, 0xac, 0x80, 0xb5, 0x93, 0xb1,
  0x90, 0x95, 0x67, 0xa8, 0x79, 0x86, 0x7f, 0xb6, 0x89, 0x68, 0x93, 0xa0,
  0x6f, 0x8a, 0x7f, 0x90, 0x8a, 0x84, 0x72, 0xa4, 0x8f, 0x8a, 0x76, 0x9e,
  0xa0, 0x68, 0x7b, 0x7f, 0x91, 0x87, 0x97, 0xb3, 0x78, 0x98, 0x63, 0x8d,
  0xb0, 0x7b, 0x71, 0x73, 0x85, 0x66, 0x67, 0x8b, 0xa6, 0xa3, 0x77, 0x85,
  0x83, 0x82, 0x84, 0x92, 0x72, 0x80, 0x82, 0x4c, 0x5e, 0x95, 0x6e, 0x79,
  0x5a, 0x7d, 0x8b, 0x74, 0x7f, 0x76, 0x77, 0x76, 0x6e, 0x84, 0x6d, 0x85,
  0x74, 0x5e, 0x98, 0x87, 0x63, 0x56, 0x9f, 0x72, 0x97, 0x98, 0x94, 0x7d,
  0x53, 0x78, 0x7d, 0xb1, 0x8d, 0xa5, 0x84, 0x98, 0x7e, 0x6f, 0x7f, 0x89,
  0x83, 0x76, 0x7f, 0x93, 0x7b, 0x97, 0x7e, 0x9a, 0x7c, 0x59, 0x7a, 0xa4,
  0x78, 0xa1, 0x64, 0x71, 0x95, 0x63, 0x92, 0x88, 0x72, 0x90, 0x87, 0x9d,
  0x83, 0x8b, 0x7b, 0x91, 0x66, 0x7f, 0x7d, 0x88, 0x9e, 0xa3, 0x7f, 0x9b,
  0x91, 0x5f, 0x8f, 0x86, 0x83, 0x80, 0x94, 0x9e, 0x6c, 0x65, 0xa1, 0x96,
  0x9c, 0x90, 0x5f, 0x59, 0x84, 0x6b, 0x65, 0x8e, 0xa5, 0x86, 0x5d, 0x99,
  0x56, 0x80, 0x91, 0x87, 0x86, 0x5f, 0x7d, 0x74, 0x76, 0x7a, 0x70, 0x7a,
  0x9c, 0x65, 0x85, 0x80, 0x94, 0x8b, 0x83, 0x56, 0x8c, 0x8d, 0x60, 0x84,
  0x9b, 0x7a, 0x84, 0x9e, 0x6e, 0x95, 0x73, 0x81, 0xb0, 0x61, 0x93, 0xb8,
  0x6b, 0x93, 0xbb, 0x53, 0xb2, 0x93, 0x82, 0x75, 0x93, 0x6d, 0x9a, 0x89,
  0xbf, 0x61, 0xa1, 0x95, 0x88, 0x96, 0x79, 0x9b, 0x88, 0x97, 0xad, 0x59,
  0xa1, 0x6a, 0x8c, 0xb0, 0x86, 0x88, 0x95, 0x82, 0x6a, 0x7a, 0x85, 0x87,
  0x7a, 0x6e, 0xa5, 0x8f, 0x96, 0x72, 0x7a, 0x64, 0x6d, 0xa4, 0x5e, 0x76,
  0xa0, 0x60, 0x93, 0x99, 0x74, 0x8d, 0x6d, 0x8f, 0x8e, 0x8b, 0x8e, 0x94,
  0x8d, 0x98, 0xad, 0x8e, 0x7b, 0x8b, 0x9a, 0xa9, 0x8e, 0x8f, 0x99, 0x5c,
  0x8a, 0x71, 0x88, 0x68, 0x89, 0x91, 0x8e, 0x65, 0xa4, 0x77, 0x8f, 0x9d,
  0x76, 0x54, 0x60, 0x75, 0x88, 0x7f, 0x9b, 0x78, 0x6b, 0x7d, 0x98, 0x97,
  0x7c, 0x5a, 0x8f, 0x9b, 0x67, 0x58, 0xa4, 0x85, 0xa1, 0x92, 0x99, 0x59,
  0x79, 0x90, 0x73, 0x7f, 0x9a, 0x69, 0x87, 0x99, 0x66, 0x98, 0x7d, 0x89,
  0x76, 0x82, 0x99, 0x8b, 0x7d, 0x7b, 0x66, 0x81, 0x76, 0x8c, 0x8a, 0xa0,
  0x68, 0xa3, 0x74, 0x7a, 0x88, 0xaf, 0x88, 0x80, 0x7b, 0x90, 0x74, 0x7c,
  0xb0, 0x7a, 0x71, 0x86, 0x6d, 0x75, 0xab, 0x91, 0x91, 0x87, 0xa7, 0x86,
  0x7c, 0x82, 0x94, 0xc2, 0x72, 0x7c, 0xcc, 0x8b, 0xbc, 0xa4, 0x6d, 0x9c,
  0x89, 0x97, 0x71, 0xa2, 0xad, 0xa8, 0x60, 0x6e, 0x71, 0x83, 0x7b, 0x8d,
  0x8a, 0x76, 0x86, 0x97, 0x82, 0x79, 0x88, 0x8c, 0x73, 0xb5, 0x8c, 0x5e,
  0xbd, 0x92, 0x8c, 0x9c, 0x8d, 0xd6, 0x5a, 0x82, 0xc9, 0x65, 0x8a, 0x8e,
  0x8a, 0x8f, 0xa8, 0x8d, 0xa6, 0x69, 0x89, 0x81, 0x71, 0x81, 0x5b, 0x72,
  0xa0, 0x8c, 0xb3, 0x9e, 0x86, 0x9a, 0xac, 0x8d, 0x9a, 0x81, 0x87, 0x7e,
  0x85, 0x7a, 0x94, 0x94, 0xa9, 0x6d, 0xae, 0x8e, 0x87, 0x8f, 0x96, 0x7f,
  0x83, 0x6d, 0x98, 0x7e, 0x70, 0x69, 0x60, 0x8f, 0x7a, 0x85, 0xa2, 0x8b,
  0x6e, 0x5a, 0x5f, 0x69, 0x61, 0x9a, 0x8c, 0x98, 0x8d, 0x76, 0x7f, 0x83,
  0x82, 0x97, 0x9c, 0x77, 0x5d, 0x96, 0x80, 0x96, 0x74, 0x83, 0x95, 0x85,
  0x7c, 0x88, 0x99, 0x87, 0x8d, 0x8d, 0xb1, 0x7b, 0x85, 0x8c, 0xab, 0x76,
  0x8e, 0x83, 0xa7, 0x7d, 0x82, 0x64, 0x7f, 0x6b, 0x96, 0x60, 0xb0, 0x79,
  0x70, 0x82, 0x88, 0x68, 0x78, 0x78, 0x8c, 0x71, 0x82, 0x82, 0x76, 0x9b,
  0x5d, 0x74, 0xb6, 0x7d, 0x72, 0x8f, 0x82, 0xd4, 0xa2, 0x75, 0xc7, 0x8b,
  0xad, 0x98, 0x64, 0x86, 0x92, 0x89, 0x8a, 0x93, 0xa5, 0x8e, 0x8c, 0x6c,
  0x89, 0x82, 0x7c, 0x7b, 0x97, 0xc3, 0x8d, 0x7f, 0x9c, 0x88, 0x81, 0x97,
  0x88, 0xe5, 0x8a, 0x76, 0xbe, 0x71, 0x81, 0x9e, 0x90, 0xd8, 0x70, 0x6d,
  0xa6, 0x7e, 0x82, 0x9c, 0x95, 0xa4, 0x6a, 0x6f, 0xb1, 0x6a, 0x86, 0x95,
  0x9f, 0xac, 0x8b, 0x88, 0x97, 0x75, 0x8b, 0x8d, 0x95, 0xa8, 0x84, 0x4e,
  0x95, 0x90, 0x80, 0x9d, 0xab, 0x96, 0x91, 0x52, 0x9a, 0x82, 0x8e, 0x91,
  0x88, 0x91, 0xb4, 0xa8, 0x93, 0x63, 0x85, 0xaa, 0x7d, 0x98, 0x5f, 0x91,
  0x97, 0x6f, 0x9f, 0xa4, 0x6c, 0x7c, 0x67, 0x5f, 0x6a, 0x82, 0x8e, 0x7e,
  0x91, 0x91, 0x7d, 0xa6, 0x6d, 0x71, 0x97, 0x92, 0x98, 0x82, 0xa1, 0x7b,
  0x98, 0x70, 0x8a, 0x88, 0x68, 0x65, 0x93, 0x6a, 0x85, 0x5d, 0x99, 0x89,
  0xb1, 0x9a, 0x80, 0x7f, 0x94, 0x9c, 0x9f, 0x83, 0x8f, 0x71, 0xaa, 0x54,
  0x94, 0x8c, 0x8f, 0x85, 0x99, 0x8c, 0x6f, 0x79, 0x6b, 0x7f, 0x73, 0x8d,
  0x80, 0x9c, 0xa2, 0x99, 0x70, 0xb2, 0xae, 0x71, 0x73, 0x7e, 0x74, 0xca,
  0x7a, 0xa5, 0xc3, 0x7c, 0x96, 0xac, 0x8b, 0x7d, 0x87, 0x91, 0x96, 0x8e,
  0xb0, 0x6f, 0x72, 0x8b, 0x73, 0x77, 0x71, 0x73, 0x76, 0xaa, 0x93, 0x6d,
  0x9d, 0xa7, 0x62, 0x94, 0x9a, 0xe8, 0xb2, 0x75, 0xd2, 0xb3, 0x58, 0x96,
  0xb6, 0xfe, 0x7e, 0x71, 0xbc, 0x9c, 0x8a, 0x88, 0x8b, 0xc0, 0x92, 0x4f,
  0x90, 0xa1, 0x7c, 0xa5, 0xa8, 0x8a, 0xa4, 0x6b, 0x96, 0x5d, 0x75, 0xa0,
  0x95, 0xa1, 0xa2, 0x67, 0x77, 0x58, 0x86, 0x88, 0x84, 0xa0, 0x93, 0x61,
  0x94, 0x70, 0x7e, 0xa9, 0x9e, 0x8b, 0xa3, 0x6d, 0x98, 0x96, 0x86, 0xb5,
  0x4f, 0x70, 0x52, 0x77, 0x83, 0x7d, 0x90, 0xa5, 0x65, 0x49, 0x62, 0x9c,
  0x63, 0xb0, 0xa3, 0xb0, 0x63, 0x76, 0x66, 0x86, 0x6b, 0x97, 0xa0, 0x9e,
  0x8d, 0x7d, 0x84, 0x84, 0x6c, 0x5c, 0x9c, 0xa9, 0x97, 0x71, 0x98, 0x64,
  0x86, 0x9c, 0x9e, 0x8e, 0x98, 0x75, 0x9e, 0x59, 0x60, 0x87, 0x91, 0x85,
  0xa3, 0x7e, 0x8b, 0x4f, 0x82, 0x8a, 0x90, 0x83, 0x96, 0x69, 0x98, 0x8e,
  0x76, 0xa6, 0x87, 0x82, 0x7c, 0x73, 0x83, 0x7d, 0x76, 0x90, 0xac, 0x7d,
  0x73, 0xab, 0x7e, 0xc7, 0x7f, 0x73, 0xb7, 0x60, 0xae, 0x86, 0x80, 0x96,
  0x87, 0x8a, 0x94, 0x9a, 0xab, 0x72, 0x6d, 0x7a, 0x7d, 0x8f, 0xa0, 0x95,
  0x96, 0xb7, 0xa6, 0x6d, 0xc2, 0x8a, 0x6a, 0x88, 0xb8, 0xf7, 0x86, 0x5d,
  0xbc, 0x71, 0x5e, 0x9e, 0xb4, 0xfe, 0x8e, 0x6d, 0xb7, 0x90, 0x8c, 0x8f,
  0xac, 0xd4, 0x89, 0x3a, 0x98, 0x6c, 0x80, 0x9c, 0x7d, 0xad, 0xaf, 0x61,
  0xa8, 0x91, 0x7b, 0x86, 0x84, 0x9b, 0x83, 0x6f, 0xa1, 0x89, 0x5a, 0x97,
  0x99, 0x9a, 0xa3, 0x49, 0x9d, 0x80, 0x64, 0xad, 0xa0, 0x9a, 0x87, 0x82,
  0x8c, 0x91, 0x7c, 0x9f, 0x73, 0x70, 0x7f, 0x74, 0x7d, 0x89, 0xa3, 0xb9,
  0x62, 0x53, 0x56, 0x87, 0x74, 0x6c, 0xbc, 0x98, 0x80, 0x5d, 0x7e, 0x83,
  0x7a, 0xa2, 0xb2, 0x7f, 0x96, 0x61, 0x6f, 0x83, 0x97, 0xa7, 0xac, 0x9d,
  0x73, 0x87, 0x6f, 0x94, 0x77, 0x87, 0x97, 0x83, 0xa8, 0x70, 0xa0, 0x7f,
  0x97, 0x98, 0x85, 0x88, 0xb1, 0x9c, 0x79, 0x77, 0x97, 0xab, 0x8c, 0x7a,
  0xc4, 0x8d, 0x8c, 0x69, 0x62, 0x84, 0x7b, 0x75, 0x8e, 0x79, 0x82, 0x88,
  0x78, 0x61, 0x97, 0x7e, 0x77, 0x7a, 0x73, 0xc1, 0x7f, 0x8a, 0xb1, 0x70,
  0x96, 0x97, 0x7e, 0x7a, 0x86, 0x75, 0x80, 0x93, 0xa4, 0xa0, 0x6b, 0x7f,
  0x93, 0x85, 0x6c, 0x88, 0x9a, 0xd6, 0x92, 0x59, 0xa6, 0x94, 0x78, 0x88,
  0xa1, 0xe0, 0xad, 0x50, 0xc0, 0x9a, 0x50, 0x8a, 0xa0, 0xe1, 0xac, 0x57,
  0xc0, 0x65, 0x74, 0x98, 0x96, 0xb7, 0x7d, 0x27, 0xa8, 0x97, 0x66, 0xa5,
  0x92, 0xa2, 0x9b, 0x5b, 0x7e, 0xaf, 0x69, 0x96, 0x78, 0xa6, 0x85, 0x55,
  0xa9, 0xb1, 0x61, 0x8e, 0xad, 0xac, 0x9b, 0x6b, 0x9b, 0x53, 0x6d, 0xb1,
  0x98, 0x98, 0x70, 0x4d, 0x9f, 0x99, 0x98, 0xa4, 0x77, 0x78, 0x63, 0x8d,
  0x72, 0x9d, 0xa8, 0x9e, 0x4f, 0x48, 0x67, 0x87, 0x81, 0x93, 0xa8, 0xb8,
  0x5c, 0x70, 0x7b, 0x79, 0x5f, 0x85, 0xad, 0x9c, 0x8e, 0x73, 0x6c, 0x72,
  0x77, 0x92, 0xab, 0x7d, 0x85, 0x73, 0x83, 0x53, 0x59, 0x6d, 0x97, 0x91,
  0xad, 0x9d, 0x98, 0x78, 0x75, 0x73, 0x82, 0x94, 0xb1, 0x82, 0x8e, 0x87,
  0x8d, 0xab, 0x90, 0x92, 0xc8, 0x6c, 0x8d, 0x67, 0x8a, 0x97, 0x89, 0x83,
  0x7e, 0x6d, 0x79, 0x78, 0x75, 0x73, 0x89, 0x64, 0x8a, 0x7f, 0x72, 0xc0,
  0xa0, 0x85, 0xb6, 0x7c, 0x9f, 0x8e, 0x99, 0x87, 0x72, 0xa5, 0x81, 0x96,
  0xa7, 0x97, 0x6a, 0x6c, 0x82, 0x81, 0x80, 0x9f, 0x8b, 0xd9, 0xa3, 0x45,
  0xb4, 0x8a, 0x68, 0xa1, 0x9e, 0xd8, 0xaa, 0x31, 0xcd, 0x93, 0x5d, 0x8e,
  0x87, 0xf2, 0x9f, 0x38, 0xb7, 0xaa, 0x87, 0xa1, 0xa4, 0xbf, 0x9f, 0x32,
  0xa8, 0x7a, 0x7a, 0x9a, 0x71, 0x80, 0x87, 0x55, 0xaa, 0x9e, 0x73, 0x8d,
  0x5a, 0x84, 0xa0, 0x52, 0x9e, 0x6c, 0x4c, 0x91, 0x8d, 0x82, 0x9c, 0x5c,
  0x9f, 0xad, 0x71, 0xb5, 0xad, 0x9e, 0x6e, 0x66, 0x83, 0x6c, 0x8a, 0xb0,
  0x68, 0x64, 0x64, 0x9a, 0x86, 0x77, 0xa6, 0x9d, 0x32, 0x57, 0x60, 0x75,
  0x66, 0x97, 0xaa, 0x9e, 0x5b, 0x63, 0x71, 0x88, 0x76, 0x71, 0x98, 0xa0,
  0x9e, 0x84, 0x67, 0x82, 0x7a, 0x88, 0x90, 0x78, 0x94, 0x8e, 0x7e, 0x69,
  0x4e, 0x62, 0x89, 0x93, 0x95, 0xa1, 0x79, 0x61, 0x8f, 0x90, 0x8e, 0x97,
  0xa5, 0x9b, 0x8d, 0x68, 0x92, 0x89, 0x8f, 0x77, 0xb1, 0x89, 0x76, 0x4a,
  0x8e, 0x89, 0x82, 0x74, 0x94, 0x79, 0x7b, 0x6e, 0x87, 0xb4, 0x9e, 0x64,
  0x97, 0x7e, 0x71, 0xbd, 0x76, 0x67, 0xb6, 0x69, 0x99, 0x99, 0x61, 0x81,
  0xa4, 0xad, 0x94, 0x78, 0xa0, 0x8f, 0x4f, 0x6d, 0x77, 0x91, 0x8f, 0x85,
  0x7e, 0xb1, 0x95, 0x3b, 0xc6, 0xa8, 0x5e, 0xad, 0xa7, 0xda, 0xa4, 0x2d,
  0xbf, 0x8b, 0x5c, 0x8b, 0xb7, 0xd5, 0x94, 0x4f, 0xc5, 0x9b, 0x6f, 0xa8,
  0xa6, 0xc4, 0x7c, 0x46, 0x95, 0x6b, 0x6f, 0xa4, 0x77, 0x9d, 0x84, 0x4d,
  0x9a, 0x87, 0x65, 0x97, 0x70, 0x70, 0x80, 0x48, 0x93, 0x57, 0x52, 0x98,
  0x98, 0x82, 0xa1, 0x6b, 0x84, 0x6f, 0x52, 0xa1, 0xb1, 0x92, 0xa6, 0x5e,
  0x95, 0x8e, 0x6a, 0xa5, 0x54, 0x6a, 0x55, 0x73, 0x7c, 0x80, 0xaa, 0xa6,
  0x3d, 0x50, 0x61, 0x61, 0x84, 0x64, 0xa6, 0x94, 0x70, 0x47, 0x59, 0x8b,
  0x67, 0x55, 0x95, 0x89, 0x90, 0x6e, 0x50, 0x6d, 0x7d, 0x86, 0xaf, 0xa1,
  0x86, 0x68, 0x77, 0x7b, 0x7d, 0x6b, 0x9c, 0x83, 0xa1, 0xa2, 0x76, 0x62,
  0x77, 0x9f, 0x88, 0x99, 0xaa, 0xa4, 0x76, 0x6a, 0x81, 0x5d, 0x82, 0x87,
  0x90, 0x8c, 0x85, 0x5a, 0x5e, 0xa0, 0x98, 0x7a, 0x93, 0x6a, 0x6c, 0x7a,
  0x7b, 0xaf, 0x9d, 0x5d, 0x7e, 0x78, 0x6c, 0xbf, 0x86, 0xa2, 0xaf, 0x6c,
  0x9a, 0x8e, 0x6f, 0x80, 0x87, 0x5d, 0x7d, 0x8b, 0xaa, 0x90, 0x63, 0x5e,
  0x91, 0x8a, 0x79, 0xae, 0x77, 0xcf, 0x8f, 0x54, 0xc1, 0x66, 0x63, 0x92,
  0xb2, 0xde, 0xbf, 0x1f, 0xc8, 0x74, 0x70, 0xae, 0x9e, 0xd9, 0x9f, 0x37,
  0xbc, 0x64, 0x88, 0xa1, 0x95, 0xcd, 0x87, 0x3c, 0x8f, 0x78, 0x7e, 0x94,
  0x61, 0x9c, 0x73, 0x35, 0x86, 0x91, 0x72, 0x8c, 0x70, 0x8c, 0x8d, 0x4b,
  0x8d, 0x8c, 0x49, 0x98, 0x94, 0x90, 0xb2, 0x85, 0x9d, 0x73, 0x68, 0xa5,
  0xc0, 0x9c, 0x9e, 0x44, 0x90, 0x72, 0x83, 0xa1, 0x6c, 0x6e, 0x64, 0x6d,
  0x7e, 0x7e, 0x92, 0x9f, 0x4f, 0x52, 0x63, 0x62, 0x7b, 0x58, 0xbb, 0x95,
  0x6c, 0x6c, 0x75, 0x71, 0x75, 0x77, 0x9d, 0x93, 0x98, 0x7c, 0x4c, 0x63,
  0x7c, 0x85, 0x9b, 0x93, 0x8c, 0x84, 0x7b, 0x79, 0x64, 0xa5, 0x9f, 0xa6,
  0x9f, 0x8b, 0x7d, 0x5e, 0x83, 0x83, 0x94, 0x91, 0xb2, 0x96, 0x8e, 0x4a,
  0x64, 0x65, 0x8a, 0x71, 0x97, 0x9b, 0x97, 0x59, 0x84, 0x67, 0x82, 0x75,
  0x9b, 0xa4, 0x83, 0x70, 0x7d, 0x65, 0x85, 0x6d, 0x87, 0x7b, 0x57, 0xc4,
  0x75, 0x85, 0xa3, 0x48, 0x8b, 0x9f, 0x74, 0x8b, 0x86, 0x5d, 0x87, 0x6a,
  0x9d, 0xa4, 0x64, 0x6d, 0x85, 0x61, 0x81, 0x9b, 0x8f, 0xc1, 0xa9, 0x40,
  0xc8, 0x7c, 0x69, 0xad, 0x97, 0xba, 0xae, 0x31, 0xc5, 0x64, 0x4c, 0x9d,
  0x9c, 0xc3, 0x92, 0x43, 0xbc, 0x79, 0x73, 0xa9, 0xa8, 0xb3, 0x6f, 0x2c,
  0x9f, 0x88, 0x75, 0x9a, 0x73, 0x9b, 0x75, 0x30, 0x9a, 0xb4, 0x67, 0x88,
  0x70, 0x82, 0xa4, 0x4f, 0x9d, 0x9d, 0x57, 0x98, 0xac, 0x92, 0xb2, 0x81,
  0x8e, 0x86, 0x64, 0x99, 0x9a, 0xa0, 0x8f, 0x50, 0x97, 0x5b, 0x80, 0xa4,
  0x4b, 0x55, 0x6d, 0x53, 0x5f, 0x9d, 0x9e, 0x9c, 0x4c, 0x52, 0x45, 0x6c,
  0x71, 0x78, 0xad, 0x8e, 0x63, 0x63, 0x60, 0x79, 0x83, 0x81, 0x98, 0x92,
  0x98, 0x86, 0x73, 0x7f, 0x73, 0x6b, 0xa7, 0x80, 0x9d, 0x9c, 0x59, 0x71,
  0x74, 0x5f, 0xa7, 0x99, 0x79, 0xa2, 0x7b, 0x6a, 0x77, 0x78, 0x84, 0x91,
  0xa1, 0x80, 0x76, 0x64, 0x89, 0x99, 0x73, 0x7b, 0xa1, 0x7a, 0x82, 0x62,
  0x7d, 0x83, 0x8f, 0x83, 0xb6, 0x98, 0x68, 0x65, 0x69, 0x8c, 0x8e, 0x49,
  0x8e, 0x91, 0x65, 0xae, 0x59, 0x8b, 0x9f, 0x5c, 0x88, 0x90, 0x63, 0x55,
  0x9a, 0x9d, 0x8b, 0x87, 0x83, 0x84, 0x70, 0x6e, 0x81, 0x71, 0x6f, 0x9f,
  0x83, 0xc2, 0xa5, 0x41, 0xb9, 0x90, 0x5a, 0xad, 0xb7, 0xcd, 0xbe, 0x37,
  0xbc, 0x86, 0x68, 0x95, 0x9e, 0xb7, 0xb7, 0x39, 0xb7, 0xa4, 0x79, 0xb3,
  0xa5, 0xd2, 0x8c, 0x47, 0xb1, 0x8c, 0x86, 0x93, 0x79, 0x84, 0x7d, 0x3d,
  0x8e, 0x72, 0x6c, 0x8d, 0x5e, 0x6b, 0xa7, 0x3d, 0x97, 0x69, 0x58, 0x91,
  0xa2, 0x81, 0x9c, 0x75, 0x96, 0x67, 0x5e, 0x9f, 0xaf, 0x84, 0x96, 0x3f,
  0x93, 0xb2, 0x86, 0x9e, 0x55, 0x6b, 0x4b, 0x5f, 0x6f, 0x84, 0xa7, 0x7c,
  0x3d, 0x49, 0x60, 0x75, 0x4f, 0x81, 0xa4, 0x82, 0x58, 0x7e, 0x74, 0x68,
  0x7f, 0x87, 0xa0, 0x8f, 0x97, 0x88, 0x47, 0x7e, 0x78, 0x8b, 0x9b, 0x75,
  0x85, 0x86, 0x76, 0x8a, 0x76, 0x63, 0x98, 0x8c, 0x98, 0x83, 0x78, 0x6b,
  0x9d, 0x8a, 0x9e, 0x90, 0xa4, 0x9c, 0x85, 0x68, 0x91, 0x74, 0x8b, 0x88,
  0x8d, 0x7d, 0x99, 0x52, 0x8e, 0x82, 0x6f, 0x74, 0xaa, 0x84, 0x6a, 0x68,
  0x85, 0x9b, 0x79, 0x5a, 0x8a, 0x7e, 0x6e, 0xb0, 0x6e, 0xb7, 0x9d, 0x6b,
  0x94, 0x87, 0x98, 0x56, 0x8b, 0x7b, 0x98, 0x6b, 0x8e, 0xa9, 0x71, 0x4e,
  0x84, 0xa7, 0x6d, 0xa4, 0x94, 0xc3, 0xa8, 0x63, 0xb5, 0x78, 0x59, 0x9a,
  0xc6, 0xc0, 0xc0, 0x21, 0xbf, 0x9e, 0x55, 0xa7, 0x9d, 0xcc, 0xa6, 0x37,
  0xc5, 0x7f, 0x77, 0xad, 0x86, 0xb8, 0x7e, 0x5e, 0x93, 0x80, 0x7d, 0x9f,
  0x73, 0x7f, 0x8b, 0x23, 0x83, 0x95, 0x64, 0x86, 0x72, 0x73, 0xa4, 0x50,
  0x95, 0x7d, 0x4a, 0x9e, 0x9d, 0x98, 0x8f, 0x5d, 0x92, 0x6c, 0x66, 0x9d,
  0xa8, 0x92, 0x9f, 0x49, 0x80, 0x82, 0x80, 0x9d, 0x62, 0x79, 0x5e, 0x69,
  0x7a, 0x6f, 0xa1, 0x94, 0x40, 0x55, 0x75, 0x67, 0x75, 0x98, 0xaa, 0x90,
  0x5f, 0x76, 0x7a, 0x49, 0x80, 0x6e, 0xb4, 0x93, 0x87, 0x74, 0x68, 0x5a,
  0x7e, 0x7c, 0xa9, 0x90, 0x7e, 0x84, 0x63, 0x6f, 0x88, 0x90, 0x98, 0x79,
  0x92, 0x8e, 0x7b, 0x58, 0x96, 0x77, 0x9b, 0x91, 0xa7, 0x95, 0x86, 0x57,
  0xa3, 0xab, 0x75, 0x8c, 0xad, 0x71, 0x80, 0x71, 0x7d, 0xb2, 0x6c, 0x89,
  0x98, 0x74, 0x8a, 0x75, 0x83, 0x79, 0x94, 0x67, 0x93, 0x9a, 0x66, 0xa8,
  0x77, 0x78, 0x8d, 0x77, 0x85, 0x8a, 0x85, 0x87, 0x87, 0x8a, 0x96, 0x79,
  0xad, 0x80, 0x70, 0x58, 0x77, 0x73, 0x8e, 0x8e, 0x7b, 0xb8, 0xb0, 0x53,
  0xc6, 0x7a, 0x5f, 0xae, 0xb4, 0xbf, 0xa5, 0x52, 0xbe, 0x66, 0x75, 0xa3,
  0x96, 0xe1, 0xa0, 0x52, 0xae, 0x80, 0x6e, 0xa8, 0x86, 0xac, 0x80, 0x4e,
  0xb4, 0x72, 0x70, 0x9f, 0x66, 0x83, 0x81, 0x34, 0x79, 0xac, 0x51, 0x84,
  0x6d, 0x88, 0x92, 0x56, 0x8a, 0x95, 0x63, 0x7d, 0x9f, 0x94, 0xac, 0x6e,
  0x9f, 0xab, 0x60, 0xa3, 0xb1, 0x9a, 0x84, 0x39, 0x97, 0x7e, 0x6e, 0xb0,
  0x4c, 0x5f, 0x58, 0x59, 0x79, 0x9a, 0x9d, 0x82, 0x4c, 0x54, 0x75, 0x6f,
  0x71, 0x7e, 0xa9, 0x8b, 0x51, 0x8c, 0x61, 0x76, 0x6e, 0x7d, 0xbd, 0x82,
  0x88, 0x90, 0x54, 0x72, 0x72, 0x8a, 0x87, 0x7d, 0x83, 0x7c, 0x76, 0x60,
  0x8f, 0x6b, 0x97, 0x8d, 0xa8, 0x7b, 0x7a, 0x83, 0x8c, 0x83, 0x81, 0x89,
  0xc3, 0x8e, 0x86, 0x62, 0xa1, 0x94, 0x8f, 0x84, 0xa8, 0x78, 0x85, 0x70,
  0x67, 0xbc, 0x78, 0x74, 0x97, 0x60, 0x8a, 0x6f, 0x6e, 0x98, 0x80, 0x61,
  0x7e, 0x5f, 0x72, 0xa3, 0x98, 0x94, 0x8a, 0x5e, 0x84, 0x85, 0x93, 0x8d,
  0x90, 0x91, 0x75, 0x80, 0x92, 0x7e, 0x80, 0x65, 0x7a, 0x73, 0x87, 0x8f,
  0x81, 0xcf, 0x9f, 0x5a, 0xba, 0x6e, 0x39, 0x9a, 0xb4, 0xbf, 0xb9, 0x48,
  0xbb, 0x8e, 0x5f, 0xa7, 0xaa, 0xcf, 0xab, 0x4d, 0xb0, 0x67, 0x6b, 0xb3,
  0x94, 0xc5, 0x69, 0x48, 0x9e, 0xa1, 0x81, 0xa7, 0x7a, 0x7c, 0x7d, 0x42,
  0x84, 0x6a, 0x73, 0x86, 0x63, 0x72, 0xa4, 0x5d, 0x6c, 0x72, 0x5e, 0x89,
  0xa3, 0x8a, 0x9f, 0x66, 0x8b, 0x92, 0x5d, 0x8f, 0xa3, 0x7e, 0x7c, 0x3c,
  0x7d, 0x9e, 0x7d, 0xa1, 0x6b, 0x6c, 0x5c, 0x66, 0x7b, 0x8b, 0xa9, 0x83,
  0x45, 0x5d, 0x66, 0x64, 0x6b, 0x64, 0xa9, 0x8a, 0x6c, 0x89, 0x65, 0x67,
  0x84, 0x7b, 0x9f, 0x83, 0x86, 0x9c, 0x6f, 0x6d, 0x9b, 0x91, 0x9d, 0x7d,
  0x85, 0x92, 0x68, 0x50, 0x88, 0xb7, 0xb4, 0x72, 0x8b, 0x89, 0x79, 0x4c,
  0x85, 0xb6, 0x93, 0x88, 0xab, 0x97, 0x84, 0x69, 0x90, 0x96, 0x9d, 0x7f,
  0xba, 0x7c, 0x90, 0x7c, 0x80, 0x9a, 0x92, 0x76, 0xa7, 0x87, 0x74, 0x73,
  0x93, 0xb9, 0x8b, 0x5c, 0x80, 0x6b, 0x8a, 0xa4, 0x6a, 0x89, 0x81, 0x6c,
  0x8a, 0xa2, 0x91, 0x87, 0xa4, 0xad, 0x63, 0x5b, 0x91, 0x8f, 0x8e, 0x7f,
  0x79, 0xb5, 0x87, 0x98, 0x78, 0xc8, 0xb4, 0x4d, 0xbe, 0x88, 0x7a, 0x99,
  0x9f, 0xd4, 0xd2, 0x56, 0xc4, 0xb6, 0x57, 0x9b, 0xaf, 0xe0, 0xa5, 0x46,
  0xab, 0x5a, 0x7e, 0xa9, 0x9f, 0xaf, 0x7b, 0x60, 0xa1, 0x6c, 0x6c, 0x95,
  0x70, 0x82, 0x96, 0x3c, 0x86, 0x86, 0x54, 0x82, 0x68, 0x70, 0x98, 0x48,
  0x89, 0x66, 0x5a, 0x91, 0x8f, 0x77, 0xa6, 0x60, 0x81, 0x82, 0x7f, 0xa7,
  0x98, 0x9b, 0x6f, 0x2f, 0x8d, 0x69, 0x70, 0xad, 0x5f, 0x72, 0x54, 0x52,
  0x85, 0x73, 0xaa, 0x8e, 0x45, 0x59, 0x6c, 0x5f, 0x54, 0x9a, 0xa8, 0x7a,
  0x53, 0x84, 0x6c, 0x5b, 0x80, 0x84, 0xa3, 0x72, 0x84, 0x91, 0x68, 0x6d,
  0x91, 0x96, 0xae, 0x76, 0x83, 0x7d, 0x7f, 0x74, 0x79, 0x89, 0x8b, 0x83,
  0xa1, 0x70, 0x82, 0x58, 0x71, 0xa5, 0x8a, 0x89, 0xc3, 0x84, 0x7a, 0x6a,
  0x8d, 0x8b, 0x94, 0x7d, 0xaa, 0x79, 0x8e, 0x79, 0x86, 0xb0, 0x99, 0x8e,
  0xa5, 0x72, 0x70, 0x73, 0x83, 0xa2, 0x85, 0x73, 0x95, 0x7e, 0x86, 0xb0,
  0x63, 0xa1, 0x84, 0x6b, 0x93, 0x89, 0x7c, 0x74, 0x7a, 0x8c, 0xa1, 0x67,
  0x92, 0x90, 0x80, 0x67, 0x74, 0xa0, 0x92, 0xa4, 0x86, 0xb0, 0x93, 0x68,
  0x95, 0x79, 0x54, 0x9c, 0xa6, 0xea, 0xce, 0x49, 0xc3, 0x9b, 0x5d, 0x95,
  0x9c, 0xe0, 0xbc, 0x5d, 0xbf, 0x9b, 0x6d, 0xa5, 0xa5, 0x9d, 0x87, 0x5e,
  0x8b, 0x80, 0x78, 0x9f, 0x75, 0x86, 0x7c, 0x33, 0x96, 0x6d, 0x5e, 0x83,
  0x6a, 0x58, 0x91, 0x5f, 0x77, 0x8f, 0x49, 0x99, 0x9d, 0x81, 0x95, 0x5a,
  0x86, 0x8e, 0x73, 0xa1, 0x95, 0x8f, 0x69, 0x38, 0x8a, 0x76, 0x6f, 0xa1,
  0x5b, 0x7c, 0x5b, 0x46, 0x8c, 0xab, 0x98, 0x99, 0x59, 0x53, 0x7c, 0x69,
  0x7c, 0x58, 0x94, 0x83, 0x6a, 0x9d, 0x72, 0x70, 0x89, 0x70, 0xa1, 0x93,
  0x96, 0x9f, 0x77, 0x85, 0x9f, 0xb2, 0xa4, 0x7d, 0x7a, 0x8d, 0x79, 0x7a,
  0x82, 0x95, 0x93, 0x90, 0x9d, 0x89, 0x66, 0x6a, 0x8a, 0x8d, 0x95, 0x86,
  0x9e, 0x85, 0x90, 0x67, 0x94, 0xa8, 0x9b, 0x81, 0xa3, 0x76, 0x98, 0x6c,
  0x9e, 0x79, 0x88, 0x8e, 0xa7, 0x81, 0x6d, 0x7e, 0x6f, 0x81, 0x7c, 0x65,
  0x7c, 0x78, 0x81, 0x9e, 0x8d, 0xa6, 0x7e, 0x72, 0xad, 0x80, 0x94, 0x7e,
  0x86, 0x89, 0x97, 0x5d, 0x93, 0x87, 0x82, 0x78, 0x67, 0xa8, 0x7b, 0xa4,
  0x7e, 0xb6, 0xc3, 0x61, 0x9c, 0x94, 0x56, 0xa5, 0xc5, 0xd7, 0xd4, 0x5f,
  0xbb, 0x6e, 0x4d, 0x9f, 0xa2, 0xc5, 0xc3, 0x52, 0xc5, 0x9b, 0x55, 0x9e,
  0x9e, 0xad, 0x92, 0x53, 0x81, 0xa6, 0x6a, 0x94, 0x4e, 0x70, 0x8b, 0x41,
  0x92, 0x7a, 0x5d, 0x76, 0x61, 0x52, 0xa2, 0x46, 0x6d, 0x7a, 0x5a, 0x69,
  0x8c, 0x7c, 0xaa, 0x73, 0x98, 0x80, 0x6d, 0x98, 0xa2, 0x82, 0x6f, 0x49,
  0x85, 0x89, 0x7b, 0xa5, 0x68, 0x54, 0x53, 0x4e, 0x64, 0x93, 0xa2, 0x86,
  0x59, 0x63, 0x7e, 0x69, 0x67, 0x66, 0x7e, 0x93, 0x65, 0x7b, 0x77, 0x73,
  0x89, 0x96, 0x9b, 0x86, 0x7b, 0x8f, 0x6a, 0x71, 0x84, 0x85, 0xae, 0x72,
  0x77, 0x81, 0x7c, 0x61, 0x71, 0x73, 0x9a, 0x81, 0x82, 0x95, 0x76, 0x6f,
  0x76, 0x90, 0xa1, 0x89, 0xba, 0x97, 0x8e, 0x7a, 0x8d, 0x89, 0xa3, 0x8f,
  0xaa, 0x76, 0x82, 0x69, 0x7c, 0xbd, 0x7a, 0x88, 0x97, 0x83, 0x69, 0x63,
  0x87, 0x8a, 0x83, 0x7c, 0x7c, 0x79, 0x6a, 0x9c, 0x6c, 0x9e, 0x88, 0x5b,
  0xa3, 0x83, 0x8d, 0x4c, 0x92, 0x97, 0x8c, 0x7f, 0xa1, 0x7f, 0x80, 0x72,
  0x6f, 0x85, 0x89, 0x85, 0x77, 0xb9, 0xc7, 0x73, 0x98, 0xae, 0x7d, 0xab,
  0x9c, 0xd0, 0xb6, 0x5f, 0xc3, 0x6f, 0x61, 0x9c, 0xaf, 0xc9, 0xb3, 0x61,
  0xb6, 0x92, 0x6e, 0xa1, 0xa5, 0x90, 0x7c, 0x6f, 0x89, 0x6e, 0x8b, 0x97,
  0x81, 0x71, 0x57, 0x43, 0x6f, 0x74, 0x51, 0x98, 0x64, 0x65, 0x93, 0x66,
  0x65, 0x7b, 0x5b, 0x86, 0x76, 0x90, 0xb0, 0x4f, 0x97, 0x71, 0x7e, 0xaa,
  0x9a, 0x8c, 0x74, 0x63, 0x90, 0xaa, 0x8d, 0xad, 0x50, 0x72, 0x4f, 0x58,
  0x7e, 0x91, 0x93, 0x87, 0x5a, 0x50, 0x79, 0x71, 0x6f, 0x78, 0x8e, 0x85,
  0x60, 0x84, 0x71, 0x63, 0x7e, 0x60, 0x9a, 0x86, 0x8f, 0xa0, 0x86, 0x7f,
  0x89, 0x8f, 0xa9, 0x80, 0x74, 0x8b, 0x73, 0x69, 0x7e, 0x66, 0x8d, 0x9f,
  0xa2, 0x74, 0x73, 0x73, 0x80, 0x82, 0x84, 0x90, 0xa1, 0x7a, 0x8b, 0x82,
  0x9e, 0x98, 0x9e, 0x83, 0x99, 0x87, 0x7c, 0x65, 0x89, 0x8f, 0x8a, 0x6c,
  0xa3, 0x8f, 0x77, 0x73, 0x86, 0xbb, 0x8d, 0x6f, 0x74, 0x6d, 0x77, 0x93,
  0x6b, 0xa4, 0x8e, 0x69, 0xb5, 0x82, 0x9e, 0x4e, 0x83, 0x86, 0x6f, 0x7c,
  0x9b, 0x8f, 0x80, 0x75, 0x6e, 0x91, 0x88, 0x8c, 0x92, 0xb0, 0x9a, 0x64,
  0x9f, 0x91, 0x4d, 0xa6, 0xb2, 0xbf, 0xaa, 0x51, 0xc1, 0x91, 0x68, 0xb0,
  0xb6, 0xd9, 0xc0, 0x4d, 0xb0, 0x86, 0x7d, 0xac, 0x82, 0x97, 0xa0, 0x45,
  0x6b, 0x9f, 0x73, 0x95, 0x62, 0x60, 0x6c, 0x42, 0x8a, 0xa8, 0x44, 0x6a,
  0x5b, 0x5c, 0xb5, 0x53, 0x77, 0x79, 0x58, 0x8d, 0x6f, 0x85, 0xa0, 0x60,
  0x94, 0x62, 0x60, 0x9c, 0x9a, 0x89, 0x67, 0x4d, 0x82, 0x87, 0x84, 0xa0,
  0x5d, 0x71, 0x5d, 0x77, 0x72, 0x83, 0xaa, 0x87, 0x25, 0x6c, 0x79, 0x7e,
  0x6c, 0xa1, 0xac, 0x90, 0x6c, 0x7c, 0x74, 0x6f, 0x74, 0x7f, 0x7a, 0x7f,
  0x96, 0x9d, 0x79, 0x76, 0x9d, 0x67, 0xa8, 0x90, 0x88, 0x7f, 0x6a, 0x73,
  0x95, 0x7c, 0x89, 0x97, 0xa0, 0x80, 0x6b, 0x53, 0x7b, 0xa4, 0x89, 0x84,
  0x9f, 0x7a, 0x85, 0x6f, 0x80, 0x72, 0x99, 0x80, 0x90, 0x73, 0x8c, 0x8f,
  0x77, 0xaa, 0x7f, 0x7a, 0x9a, 0x7a, 0x82, 0x73, 0x7f, 0x9d, 0x95, 0x79,
  0x6c, 0xaa, 0x7a, 0x9b, 0x84, 0x8b, 0x84, 0x67, 0xc7, 0x8e, 0x6d, 0x75,
  0x79, 0x7b, 0x6b, 0x70, 0xc2, 0x77, 0x75, 0x78, 0x6b, 0x8b, 0x92, 0x99,
  0x7b, 0xb5, 0xab, 0x5e, 0x9e, 0x80, 0x60, 0xab, 0xa9, 0xc2, 0xb4, 0x4e,
  0xc3, 0xb3, 0x65, 0x9c, 0xa4, 0xa3, 0xbb, 0x63, 0xb7, 0x8d, 0x70, 0xa2,
  0x92, 0x9a, 0x90, 0x60, 0x78, 0xa9, 0x6d, 0x6e, 0x78, 0x69, 0x6c, 0x4d,
  0x73, 0x9a, 0x56, 0x6f, 0x4c, 0x4f, 0x9d, 0x5b, 0x84, 0x67, 0x43, 0x84,
  0x81, 0x88, 0xaf, 0x57, 0x73, 0xa4, 0x6c, 0x91, 0x67, 0x94, 0x93, 0x31,
  0x8d, 0x85, 0x84, 0x9f, 0x4e, 0x5d, 0x47, 0x7e, 0x86, 0xae, 0x96, 0x80,
  0x63, 0x68, 0x79, 0x7f, 0x84, 0x73, 0x8e, 0x93, 0x5c, 0x78, 0x96, 0x77,
  0x6c, 0x94, 0x8f, 0x82, 0x93, 0x93, 0x75, 0x90, 0x93, 0x83, 0xa9, 0x8e,
  0x76, 0x7f, 0x76, 0x68, 0x88, 0x86, 0x85, 0x85, 0xab, 0x8c, 0x65, 0x75,
  0x77, 0x77, 0x89, 0x83, 0xa3, 0x8f, 0x92, 0x72, 0x80, 0x74, 0x8c, 0x71,
  0x99, 0x88, 0x8d, 0x69, 0x89, 0xaa, 0x87, 0x7c, 0xa5, 0x93, 0x81, 0x7a,
  0x7d, 0x66, 0x81, 0x87, 0x6d, 0x7a, 0x84, 0x90, 0x55, 0xb5, 0x7a, 0x75,
  0xe3, 0xa7, 0x70, 0x66, 0xa3, 0xa2, 0x71, 0xa3, 0xc0, 0x8f, 0x97, 0x92,
  0x7a, 0x7a, 0x80, 0xa0, 0x9b, 0xa3, 0x8f, 0x70, 0xcc, 0x90, 0x54, 0xba,
  0xa6, 0xcc, 0xb0, 0x6e, 0xc1, 0x74, 0x64, 0x93, 0xae, 0xc3, 0xa4, 0x6e,
  0xa8, 0x8b, 0x66, 0x9b, 0xa7, 0x8f, 0x8c, 0x4d, 0x8b, 0xa2, 0x71, 0x87,
  0x85, 0x89, 0x78, 0x2a, 0x9c, 0x72, 0x6a, 0x75, 0x4d, 0x76, 0xa0, 0x6b,
  0x7c, 0x6c, 0x63, 0x96, 0x87, 0x92, 0x87, 0x73, 0x7a, 0x60, 0x93, 0x95,
  0x6e, 0x89, 0x83, 0x49, 0x88, 0x6a, 0xaf, 0x9e, 0x5e, 0x62, 0x46, 0x68,
  0x81, 0xb1, 0xa3, 0x93, 0x64, 0x75, 0x89, 0x7e, 0x66, 0x85, 0xb4, 0x97,
  0x6b, 0x8f, 0x8f, 0x65, 0x71, 0x8b, 0xa3, 0x8f, 0x90, 0x81, 0x51, 0x97,
  0x70, 0x92, 0xa1, 0x92, 0x82, 0x85, 0x72, 0x7c, 0x99, 0x88, 0x9a, 0x95,
  0x91, 0x7e, 0x66, 0x76, 0x8a, 0xaa, 0x9d, 0x91, 0x96, 0x84, 0x79, 0x79,
  0x6b, 0x9d, 0x8b, 0x88, 0x8a, 0x5c, 0x74, 0x83, 0x6a, 0x79, 0x8f, 0x76,
  0xa9, 0x61, 0x76, 0x8c, 0x7a, 0x90, 0xa3, 0x7c, 0x8c, 0x94, 0x73, 0xaf,
  0x76, 0x97, 0x95, 0x7f, 0xd1, 0xa6, 0x6f, 0x79, 0xad, 0x8d, 0x6e, 0x91,
  0xd5, 0xab, 0x87, 0x8e, 0xb6, 0x5f, 0x8e, 0xa4, 0x9d, 0xa3, 0x8a, 0x80,
  0xa9, 0x74, 0x85, 0x9d, 0xba, 0xd3, 0x96, 0x80, 0xd2, 0x50, 0x8f, 0xb7,
  0xd0, 0xb7, 0xab, 0x6f, 0xbf, 0x82, 0xa6, 0xaf, 0x9b, 0xa8, 0x97, 0x6d,
  0xab, 0x83, 0xa2, 0xa0, 0x95, 0x8d, 0x53, 0x4c, 0x8d, 0x9a, 0x82, 0x8a,
  0x70, 0x64, 0x75, 0x71, 0x87, 0x8c, 0x7d, 0x80, 0x69, 0x95, 0xa7, 0x7b,
  0xa1, 0x8e, 0xae, 0xbd, 0x83, 0xa8, 0x9a, 0x66, 0x9f, 0x70, 0xbd, 0xba,
  0x5d, 0x7c, 0x35, 0x6e, 0x85, 0x7d, 0xb3, 0x9a, 0x64, 0x74, 0xa3, 0x89,
  0x74, 0x8d, 0xb2, 0xab, 0x76, 0x63, 0x96, 0x85, 0x89, 0x5e, 0xb0, 0x9f,
  0x7a, 0xa6, 0x73, 0x78, 0x9a, 0xaf, 0xba, 0x94, 0x9c, 0x8b, 0x7c, 0x73,
  0x76, 0xa7, 0xa9, 0x9d, 0xa2, 0x8c, 0x71, 0x70, 0x98, 0x8d, 0xa7, 0x96,
  0x96, 0x99, 0x8b, 0x83, 0x8b, 0x73, 0x95, 0x91, 0xa3, 0x62, 0x8b, 0x8d,
  0x66, 0x89, 0x93, 0x77, 0x96, 0x74, 0x90, 0xab, 0x4e, 0x8d, 0x8c, 0x83,
  0x91, 0x7e, 0x7d, 0xae, 0x99, 0x9a, 0x99, 0x68, 0xaf, 0xab, 0x9a, 0x70,
  0xc1, 0x5b, 0x9d, 0xbe, 0xce, 0xc3, 0x87, 0x6c, 0xb8, 0x8a, 0x9d, 0xaf,
  0xae, 0xaa, 0x7a, 0x8e, 0xcf, 0x97, 0xbb, 0xad, 0xcd, 0x9b, 0x7e, 0xa9,
  0xc0, 0x90, 0xbf, 0xc5, 0xc6, 0xb5, 0xa0, 0xa4, 0xb0, 0x68, 0xbe, 0xa8,
  0xae, 0xb6, 0x66, 0x75, 0xce, 0x69, 0xa8, 0xab, 0xac, 0x81, 0x5a, 0x74,
  0xa6, 0x6a, 0x99, 0x96, 0x76, 0x6a, 0x7f, 0x97, 0x97, 0x83, 0xa0, 0x90,
  0x93, 0x77, 0xb8, 0x7d, 0xaa, 0x86, 0xc6, 0xaa, 0xa6, 0xb9, 0x9b, 0x7d,
  0x98, 0x9c, 0xc8, 0xbf, 0xa3, 0x72, 0x5f, 0x81, 0x7c, 0x93, 0xca, 0xb2,
  0x68, 0x63, 0x8d, 0x7b, 0x94, 0x76, 0xbc, 0xa0, 0xa3, 0x93, 0x6a, 0x94,
  0x8e, 0xa0, 0xa8, 0xae, 0x9a, 0xa1, 0x93, 0x74, 0x8b, 0x9d, 0xa7, 0x9e,
  0xb7, 0x93, 0xa2, 0x7d, 0x81, 0x90, 0xcd, 0xa0, 0xae, 0x97, 0x77, 0x8f,
  0x9a, 0xa2, 0xc7, 0x9f, 0xa4, 0x9b, 0x5d, 0x91, 0x91, 0x7e, 0xbb, 0x92,
  0x7d, 0x9b, 0x83, 0x9c, 0x79, 0x86, 0xa2, 0xa6, 0xa7, 0x93, 0x77, 0x96,
  0x90, 0x85, 0xa8, 0xae, 0x8a, 0x87, 0x83, 0xaf, 0xa0, 0xad, 0xac, 0x81,
  0x79, 0xa3, 0x5d, 0x8a, 0xa6, 0x78, 0x86, 0xa3, 0xcc, 0xbf, 0x7b, 0x78,
  0xb4, 0x9c, 0x7a, 0x9a, 0xa2, 0x9b, 0x55, 0x91, 0xc0, 0x63, 0xa8, 0xab,
  0xb1, 0xa8, 0x8b, 0x94, 0xd3, 0x7d, 0x96, 0xa3, 0xb7, 0xa2, 0x8c, 0x91,
  0xa5, 0x7e, 0x8b, 0xb8, 0xb0, 0xb8, 0x8a, 0x7e, 0xbd, 0x72, 0xbc, 0xb2,
  0xa5, 0x7c, 0x55, 0x6d, 0xb3, 0x5f, 0x7d, 0x8e, 0x99, 0x80, 0x47, 0x8e,
  0x9d, 0x7c, 0xc1, 0x84, 0x81, 0xa3, 0x97, 0x91, 0xbf, 0x61, 0xb8, 0xb3,
  0x7f, 0xb0, 0x85, 0x5a, 0xa1, 0x5c, 0xa7, 0xb0, 0x71, 0x81, 0x48, 0x7b,
  0xa7, 0x83, 0xa5, 0x98, 0x94, 0x8b, 0x87, 0x9c, 0xa8, 0x8c, 0xa8, 0x9d,
  0x7a, 0x84, 0x6f, 0x89, 0xb1, 0xb4, 0xba, 0xa8, 0x71, 0xb8, 0x69, 0x74,
  0x9a, 0x7a, 0x8f, 0xa8, 0x9e, 0xaa, 0x8c, 0x71, 0x9a, 0xa6, 0x95, 0x9b,
  0xc4, 0xa7, 0x78, 0xa8, 0x85, 0xae, 0xa7, 0xbf, 0x9a, 0xab, 0x74, 0x7e,
  0x8d, 0xac, 0xb8, 0xb1, 0x98, 0x8d, 0x84, 0xa1, 0x9a, 0x98, 0x8e, 0xb3,
  0x99, 0xb5, 0x82, 0x9a, 0x9e, 0x98, 0xa3, 0xbb, 0x9d, 0x90, 0x86, 0xbd,
  0x94, 0xa0, 0xb4, 0x99, 0xad, 0x92, 0x84, 0x92, 0x7f, 0x7e, 0x74, 0x6b,
  0xa1, 0x7d, 0x78, 0x6b, 0x6e, 0x6f, 0x5e, 0x6b, 0x70, 0x7e, 0x8a, 0x5e,
  0x5e, 0x77, 0x79, 0x89, 0x68, 0x95, 0x61, 0x6a, 0x5a, 0xa6, 0x6b, 0x81,
  0x73, 0x88, 0x97, 0xad, 0x85, 0x77, 0x78, 0x82, 0x7b, 0x7f, 0x78, 0x61,
  0x70, 0x76, 0x84, 0x7e, 0x6c, 0x6b, 0x61, 0x6d, 0x98, 0x83, 0x7f, 0x6b,
  0x79, 0x8d, 0x77, 0x7a, 0x7d, 0x76, 0x61, 0x91, 0x8a, 0x55, 0xa5, 0x83,
  0x79, 0xa0, 0x6a, 0x61, 0x88, 0xac, 0x92, 0x8b, 0x8b, 0x67, 0x83, 0x90,
  0xa7, 0x83, 0x7b, 0x6f, 0x69, 0x88, 0x99, 0x84, 0x83, 0x79, 0x9c, 0x61,
  0x64, 0xa7, 0x93, 0x53, 0x6f, 0x7b, 0xad, 0x6e, 0x63, 0x72, 0x8b, 0x77,
  0x5d, 0x52, 0x8e, 0x67, 0x86, 0x74, 0x7a, 0x67, 0x71, 0x66, 0x7f, 0x85,
  0x87, 0x6a, 0x66, 0x91, 0x86, 0x6a, 0x70, 0x5a, 0x82, 0x7a, 0x81, 0x6f,
  0x9d, 0x81, 0x9b, 0x8b, 0x7e, 0x87, 0x77, 0x74, 0x8c, 0x95, 0x85, 0x73,
  0x9e, 0x93, 0x75, 0x7d, 0x83, 0xb2, 0x6f, 0xa3, 0x8b, 0x8a, 0x62, 0x88,
  0x96, 0x91, 0x8a, 0xa6, 0x78, 0x7b, 0xbc, 0xb0, 0xb0, 0x7c, 0x76, 0x5f,
  0xa0, 0x66, 0x91, 0xa1, 0xbb, 0x6d, 0x60, 0x7a, 0x77, 0x79, 0x86, 0x72,
  0x7c, 0x65, 0x74, 0x66, 0x6f, 0x89, 0x7c, 0x7a, 0x84, 0x89, 0x80, 0xa7,
  0x7e, 0x84, 0x89, 0x63, 0x7a, 0x8a, 0x67, 0xa3, 0x56, 0x70, 0x80, 0x75,
  0x5f, 0x58, 0x72, 0x8e, 0x58, 0x85, 0x97, 0x78, 0x6f, 0x8d, 0xa8, 0x6b,
  0xa5, 0x5a, 0x78, 0x9b, 0x84, 0x81, 0x97, 0x9e, 0x72, 0x9c, 0x8e, 0x97,
  0x85, 0x91, 0x9d, 0x98, 0xaa, 0x78, 0x7e, 0xb7, 0x80, 0xa7, 0x74, 0xa2,
  0xab, 0x92, 0x69, 0x8e, 0x74, 0x92, 0xb0, 0xad, 0x70, 0x83, 0x94, 0xa0,
  0x60, 0x7e, 0x88, 0x82, 0xa5, 0x76, 0x89, 0x62, 0x60, 0x9e, 0x94, 0x87,
  0xa6, 0x9b, 0x9e, 0x94, 0x73, 0x5d, 0x7e, 0x79, 0x7b, 0x7d, 0x7c, 0x71,
  0x53, 0x75, 0x75, 0x93, 0x81, 0x78, 0x83, 0x85, 0x5e, 0x8f, 0x82, 0x65,
  0x93, 0x5d, 0x91, 0x93, 0x64, 0x8e, 0x80, 0x5a, 0xa2, 0x8a, 0x79, 0x7d,
  0x85, 0x86, 0x9f, 0x85, 0x9c, 0x6d, 0x6a, 0x95, 0x6a, 0x8c, 0x83, 0x8d,
  0x6a, 0x95, 0x9b, 0x8b, 0x68, 0x69, 0x83, 0xb3, 0x97, 0x9d, 0xc7, 0x7a,
  0xb5, 0xa9, 0x72, 0xa6, 0x92, 0x9b, 0x83, 0x82, 0xaa, 0xb2, 0x84, 0x6d,
  0x9e, 0x73, 0x84, 0x85, 0x93, 0xa0, 0x7d, 0xa8, 0x69, 0x6f, 0x80, 0x95,
  0x7d, 0x8e, 0x6c, 0x95, 0x88, 0x67, 0xa9, 0xa8, 0x8f, 0x5d, 0x86, 0x8e,
  0x97, 0xa9, 0x91, 0x9b, 0x81, 0x9f, 0x83, 0x93, 0x72, 0x77, 0x89, 0x87,
  0x68, 0x95, 0x5d, 0x91, 0x65, 0x87, 0x98, 0x8a, 0x67, 0xb6, 0x87, 0x67,
  0x98, 0x84, 0x7b, 0x76, 0x83, 0x98, 0x89, 0x6d, 0xb0, 0x9f, 0x91, 0x90,
  0x8e, 0x9b, 0xb1, 0x87, 0xc9, 0x8e, 0x7e, 0x79, 0x90, 0xa7, 0xaa, 0x8e,
  0x88, 0x69, 0x8f, 0x7d, 0x90, 0x8b, 0x8e, 0x68, 0x8c, 0x60, 0x82, 0x8d,
  0x77, 0x8a, 0xa5, 0x98, 0x8d, 0x7b, 0x8d, 0x74, 0x4a, 0x66, 0xa4, 0x5e,
  0x6f, 0x81, 0x87, 0x79, 0x6a, 0x78, 0x7f, 0x6b, 0x90, 0x70, 0xa0, 0x8c,
  0x48, 0x6f, 0x92, 0x6f, 0x7e, 0x6d, 0xa3, 0x66, 0x75, 0x60, 0x63, 0x99,
  0x76, 0x9c, 0x97, 0x79, 0x61, 0x84, 0x7f, 0x85, 0x7c, 0x89, 0x99, 0x80,
  0x8b, 0x83, 0x99, 0x9e, 0x86, 0x8b, 0xa7, 0x7b, 0x73, 0x7b, 0x66, 0xce,
  0x7f, 0x8c, 0xc3, 0xa1, 0xa4, 0x9d, 0x85, 0x7e, 0x96, 0x9f, 0x78, 0x85,
  0x99, 0xb8, 0x85, 0x7e, 0xaa, 0x69, 0x97, 0x82, 0x92, 0x84, 0x64, 0xa6,
  0x72, 0x8f, 0x97, 0x9f, 0x89, 0x83, 0x4c, 0xbf, 0x5f, 0x6b, 0x9d, 0x9b,
  0x9f, 0x74, 0x74, 0x96, 0x61, 0x6b, 0x95, 0xa0, 0x78, 0x76, 0x7a, 0x9c,
  0x8c, 0x8c, 0xaa, 0x9b, 0x88, 0x94, 0x86, 0x91, 0x69, 0x89, 0x88, 0x86,
  0x93, 0xa6, 0x60, 0x66, 0x89, 0x6f, 0x71, 0x95, 0xa9, 0xbb, 0xb9, 0x59,
  0xa2, 0x85, 0x75, 0x8c, 0x9f, 0xd5, 0x83, 0x9e, 0xa7, 0x8a, 0x6f, 0x8f,
  0xad, 0xbe, 0xbf, 0x69, 0xb9, 0x6c, 0x70, 0x95, 0x90, 0xb5, 0x83, 0x5a,
  0x96, 0x88, 0x6d, 0x82, 0x83, 0x96, 0x6e, 0x84, 0xa6, 0x7a, 0x7c, 0x85,
  0x94, 0x6d, 0x93, 0xa9, 0x94, 0x9e, 0x7d, 0x7e, 0x8b, 0x6b, 0x71, 0x78,
  0x7b, 0x8b, 0x79, 0x8e, 0x6e, 0x84, 0x67, 0x8f, 0xa2, 0x6f, 0x85, 0x73,
  0x8d, 0x6e, 0x5d, 0x73, 0x6c, 0x96, 0x74, 0x8b, 0x68, 0x82, 0x5f, 0xa3,
  0x6a, 0x94, 0x83, 0x91, 0x87, 0x59, 0x75, 0xa6, 0x8e, 0x95, 0xa9, 0x6d,
  0x7c, 0x7a, 0x4a, 0xc2, 0x5f, 0x88, 0xc6, 0x88, 0x91, 0xb4, 0xaf, 0x7e,
  0x91, 0x8b, 0x93, 0x87, 0x9b, 0x95, 0x62, 0x71, 0x86, 0x6a, 0x90, 0x86,
  0x74, 0x4f, 0x85, 0xbb, 0x66, 0x94, 0x82, 0x97, 0x96, 0x80, 0x4f, 0xd1,
  0x82, 0x77, 0x8a, 0xa1, 0x9a, 0x6f, 0x5a, 0xaa, 0x71, 0x66, 0xa6, 0x9f,
  0x7e, 0x60, 0x67, 0xb1, 0x61, 0x8c, 0x93, 0xaa, 0x72, 0x72, 0x86, 0x5e,
  0x78, 0x5b, 0x96, 0x9c, 0xa2, 0xa9, 0x82, 0x56, 0x87, 0x99, 0x77, 0x74,
  0x8a, 0xc2, 0xb6, 0x5e, 0xa1, 0x56, 0x5d, 0x8c, 0xc0, 0xc4, 0xb9, 0x8b,
  0xae, 0x6d, 0x61, 0x99, 0xbb, 0xcd, 0xb7, 0x70, 0xac, 0x7f, 0x5b, 0x87,
  0xb2, 0xb2, 0xa8, 0x7d, 0xb3, 0xab, 0x79, 0xa9, 0x8d, 0xa8, 0x95, 0x60,
  0x9f, 0x73, 0x74, 0x8a, 0x8c, 0x85, 0x81, 0x80, 0x70, 0x60, 0x7d, 0x94,
  0xa3, 0x78, 0x75, 0x83, 0xa1, 0x8e, 0x67, 0x88, 0x88, 0x6f, 0x6d, 0xa2,
  0x83, 0x67, 0x75, 0x78, 0x7a, 0x8a, 0x72, 0x7b, 0x82, 0x63, 0x82, 0x83,
  0x55, 0x6b, 0x6f, 0xa9, 0x77, 0xa3, 0x8a, 0x88, 0x82, 0x6b, 0x69, 0x97,
  0x74, 0x67, 0xa9, 0x9d, 0x72, 0xa4, 0x5a, 0xca, 0x7f, 0x79, 0xb3, 0x76,
  0xaa, 0x8c, 0xac, 0x72, 0x81, 0x7d, 0x75, 0x77, 0xa6, 0x7d, 0x64, 0x82,
  0x8b, 0x5c, 0x70, 0x7d, 0x8c, 0x62, 0x72, 0xa7, 0x63, 0xa0, 0x92, 0x99,
  0xba, 0x52, 0x6e, 0xbe, 0x66, 0x8e, 0xad, 0xa7, 0xa6, 0x5e, 0x5b, 0xa7,
  0x67, 0x89, 0xa9, 0x9d, 0x6f, 0x67, 0x68, 0x7f, 0x95, 0x6b, 0x97, 0xa2,
  0x6e, 0x77, 0x7c, 0x66, 0x9d, 0x66, 0x95, 0x8a, 0x92, 0x9c, 0x8e, 0x46,
  0xc6, 0x88, 0x5c, 0x87, 0xa6, 0xba, 0x88, 0x4b, 0xa2, 0x74, 0x50, 0x9e,
  0xc7, 0xe4, 0xa8, 0xaa, 0xaa, 0x85, 0x3e, 0x88, 0xdf, 0xca, 0xb0, 0x8c,
  0xc8, 0x77, 0x3f, 0x95, 0xc9, 0xd3, 0x91, 0x7d, 0x99, 0x99, 0x92, 0x8e,
  0x84, 0xb2, 0x8a, 0x84, 0xa1, 0x7b, 0x86, 0x76, 0x6d, 0x8f, 0x8b, 0x90,
  0x83, 0x77, 0x9b, 0x7e, 0x82, 0x89, 0x5f, 0x77, 0x8c, 0x8c, 0x79, 0x79,
  0x8a, 0x62, 0x44, 0x90, 0x95, 0x92, 0x7b, 0x72, 0x78, 0x70, 0x80, 0x9e,
  0x9a, 0x90, 0x71, 0x7c, 0x44, 0x88, 0x73, 0x84, 0x5a, 0x89, 0x86, 0x6e,
  0x80, 0x98, 0x8e, 0x9c, 0x9c, 0x7a, 0x91, 0xa0, 0x69, 0x7d, 0x59, 0xc1,
  0x8d, 0x8d, 0xb6, 0x89, 0x95, 0x91, 0x8a, 0x7e, 0x87, 0x7f, 0xa2, 0xa6,
  0x92, 0x9b, 0x94, 0x93, 0x7a, 0x7e, 0x93, 0x76, 0xa4, 0x65, 0x73, 0xa7,
  0x42, 0x82, 0x9b, 0x86, 0xc4, 0x53, 0x3a, 0xc6, 0x67, 0x7d, 0x9d, 0x8d,
  0xac, 0x3d, 0x71, 0x99, 0x77, 0x74, 0x9f, 0x9a, 0x5a, 0x57, 0x41, 0x88,
  0x90, 0xad, 0x8b, 0xa0, 0x67, 0x8b, 0x71, 0x58, 0x94, 0x7e, 0x89, 0x98,
  0xa1, 0xba, 0x8a, 0x48, 0xae, 0x99, 0x59, 0x8a, 0xc0, 0xcc, 0x7e, 0x62,
  0xae, 0x6e, 0x4b, 0x9f, 0xae, 0xc5, 0xb3, 0x7b, 0xbb, 0x8e, 0x45, 0x8b,
  0xeb, 0xd4, 0xc6, 0x61, 0xa8, 0x5e, 0x4c, 0x83, 0xce, 0xaa, 0x84, 0x81,
  0xb9, 0x6a, 0x67, 0x94, 0x9d, 0x9d, 0x81, 0x80, 0x91, 0x64, 0x82, 0x84,
  0x6b, 0x8c, 0x89, 0x5a, 0x95, 0x7d, 0x81, 0x60, 0xa1, 0xa7, 0x88, 0x6f,
  0xad, 0x9b, 0x63, 0x7f, 0x96, 0x9e, 0x6a, 0x78, 0x98, 0x86, 0x71, 0x83,
  0x64, 0x78, 0x4d, 0x87, 0x77, 0x70, 0x78, 0x84, 0x56, 0x68, 0x5e, 0x9d,
  0x8e, 0x73, 0x98, 0x6e, 0x66, 0x8d, 0x84, 0x90, 0x82, 0x86, 0x7a, 0x82,
  0x6f, 0x87, 0x5a, 0xbf, 0x92, 0x65, 0xb3, 0x6e, 0x9f, 0x8d, 0x92, 0x9b,
  0x85, 0x7c, 0x7a, 0x91, 0x9b, 0x80, 0x88, 0x7b, 0x80, 0x6e, 0x76, 0x7e,
  0xa0, 0x3c, 0x54, 0xb2, 0x49, 0x9d, 0x8f, 0x9f, 0xcf, 0x58, 0x4e, 0xa5,
  0x5e, 0x7b, 0xac, 0xa4, 0x92, 0x5b, 0x55, 0x96, 0x62, 0x74, 0xa5, 0xa7,
  0x57, 0x76, 0x6b, 0x76, 0x9b, 0x8a, 0x94, 0x9d, 0x56, 0x79, 0x76, 0x4b,
  0xb2, 0x5d, 0xa1, 0x98, 0x7f, 0xa5, 0x86, 0x67, 0xc3, 0x8c, 0x56, 0x8b,
  0xaf, 0xb3, 0x71, 0x4c, 0xb8, 0x88, 0x38, 0xa6, 0xd0, 0xbb, 0x8b, 0xae,
  0xb2, 0x8a, 0x38, 0x8a, 0xea, 0xb6, 0xc3, 0x82, 0xba, 0x60, 0x3d, 0x96,
  0xbe, 0xbe, 0xac, 0x79, 0xa0, 0x85, 0x75, 0x86, 0x9a, 0x98, 0x93, 0x56,
  0xbc, 0xa2, 0x62, 0x8d, 0x77, 0xa6, 0x94, 0x82, 0xac, 0x6f, 0x75, 0x62,
  0xa7, 0x94, 0x7c, 0x7c, 0x94, 0xa1, 0x69, 0x89, 0x83, 0xa1, 0x77, 0x90,
  0xbc, 0x80, 0x6e, 0x72, 0x52, 0x7f, 0x6c, 0x6e, 0x9b, 0x99, 0x9d, 0x6a,
  0x42, 0x59, 0x68, 0x92, 0x86, 0x9e, 0x9a, 0x62, 0x4f, 0x8c, 0x71, 0x85,
  0x96, 0x6f, 0x95, 0x8a, 0x78, 0x95, 0x63, 0xc1, 0x90, 0x77, 0xb4, 0x90,
  0x9d, 0x9f, 0x85, 0x6b, 0xa3, 0x97, 0x54, 0x70, 0x92, 0x7c, 0x67, 0x79,
  0x6c, 0x6b, 0x7e, 0x6f, 0x96, 0x34, 0x79, 0xa3, 0x4a, 0x82, 0x89, 0xa9,
  0xd7, 0x58, 0x54, 0xc3, 0x5b, 0x75, 0xa5, 0x8a, 0xbe, 0x4d, 0x68, 0x8e,
  0x6e, 0x8a, 0x89, 0xa8, 0x4f, 0x59, 0x4d, 0x6b, 0x7b, 0x62, 0x82, 0x94,
  0x3d, 0x97, 0x87, 0x58, 0xa2, 0xa3, 0x89, 0x96, 0x9b, 0x91, 0x88, 0x66,
  0xb6, 0x79, 0x64, 0x96, 0xc0, 0xa6, 0x8b, 0x51, 0xa5, 0x71, 0x2f, 0x97,
  0xde, 0xbe, 0xa1, 0x74, 0xa6, 0x68, 0x29, 0x7f, 0xe0, 0xb9, 0xbd, 0x74,
  0xb7, 0xae, 0x4a, 0xa6, 0xc9, 0xa6, 0x89, 0x86, 0xb5, 0x82, 0x6d, 0x82,
  0xac, 0x95, 0x63, 0x79, 0x81, 0x83, 0x6b, 0x72, 0x64, 0x93, 0x91, 0x7c,
  0x9b, 0x7e, 0x7c, 0x8c, 0xa9, 0x8b, 0x81, 0x4e, 0xae, 0x80, 0x64, 0x65,
  0x93, 0x9d, 0x5e, 0x81, 0x9c, 0x7e, 0x63, 0x6b, 0x55, 0x7f, 0x59, 0x6e,
  0x80, 0x62, 0x81, 0x7c, 0x2c, 0x63, 0x39, 0x92, 0x75, 0x63, 0xae, 0x83,
  0x4b, 0x98, 0x71, 0x8a, 0x93, 0x55, 0x90, 0xa9, 0x5b, 0xa8, 0x67, 0xbb,
  0x8d, 0x89, 0xad, 0x89, 0x8f, 0x8c, 0x81, 0x91, 0x88, 0x8b, 0x7d, 0x96,
  0xa1, 0x72, 0x87, 0x6f, 0x8f, 0x8f, 0x8d, 0x74, 0x8d, 0x48, 0x79, 0xb6,
  0x2b, 0x94, 0x90, 0x86, 0xdd, 0x6b, 0x60, 0xb4, 0x61, 0x74, 0xaf, 0xb0,
  0xbe, 0x52, 0x58, 0xa4, 0x7e, 0x85, 0xa6, 0x9e, 0x45, 0x78, 0x53, 0x5b,
  0x76, 0x9c, 0x9b, 0x9b, 0x22, 0x89, 0x84, 0x59, 0x86, 0x96, 0x94, 0x8b,
  0xad, 0xb2, 0x84, 0x61, 0xca, 0x6d, 0x56, 0xa3, 0xae, 0xb9, 0xa2, 0x56,
  0xbd, 0x7f, 0x3f, 0x94, 0xe9, 0xbd, 0xb4, 0x6b, 0xa5, 0x60, 0x38, 0x84,
  0xd9, 0x9e, 0xd7, 0x58, 0xb5, 0x7a, 0x35, 0x90, 0xd8, 0xa8, 0x8c, 0x75,
  0x99, 0x7a, 0x84, 0x8e, 0xa7, 0x92, 0x93, 0x7b, 0x88, 0x7d, 0x71, 0x81,
  0x7d, 0x92, 0x84, 0x5d, 0xa0, 0x86, 0x7b, 0x81, 0x99, 0x93, 0x82, 0x88,
  0xa6, 0x95, 0x5b, 0x82, 0x95, 0x8e, 0x5e, 0x92, 0xa9, 0x8b, 0x74, 0x67,
  0x6f, 0x81, 0x56, 0x86, 0x7e, 0x8e, 0x9d, 0x67, 0x4a, 0x7d, 0x58, 0x9b,
  0x8e, 0x90, 0xa3, 0x69, 0x49, 0x75, 0x69, 0x8a, 0x8f, 0x93, 0x77, 0xc3,
  0x66, 0x7e, 0x50, 0xc4, 0x5e, 0x5e, 0x98, 0x8c, 0x8c, 0x9f, 0x7d, 0x88,
  0x8b, 0x81, 0x72, 0x8a, 0x8c, 0x98, 0x79, 0x52, 0x89, 0x8d, 0x95, 0x4e,
  0xa8, 0x1c, 0x71, 0xa9, 0x46, 0x8c, 0x98, 0x94, 0xc3, 0x57, 0x59, 0xbd,
  0x4f, 0x87, 0x8c, 0x96, 0xbb, 0x4a, 0x59, 0x8b, 0x7c, 0x7f, 0x82, 0xa3,
  0x49, 0x5b, 0x56, 0x5e, 0x95, 0x8a, 0x95, 0x99, 0x35, 0x88, 0x8d, 0x4e,
  0x9e, 0xa5, 0x93, 0x8f, 0xa3, 0xa7, 0xaf, 0x4d, 0xc0, 0x95, 0x64, 0x99,
  0xc1, 0xad, 0x91, 0x51, 0xb6, 0x99, 0x3e, 0x8b, 0xbf, 0xaf, 0xb7, 0x6a,
  0xab, 0x9a, 0x2e, 0x83, 0xc5, 0x9f, 0xc2, 0x61, 0x9b, 0x82, 0x2a, 0xa4,
  0xd3, 0x92, 0x7a, 0x79, 0x9e, 0x67, 0x6c, 0x7f, 0x99, 0x8b, 0x84, 0x72,
  0x98, 0x85, 0x6a, 0x8a, 0x8d, 0x9b, 0xb0, 0x88, 0x93, 0xa6, 0x7d, 0x6d,
  0xc3, 0x97, 0x81, 0x8e, 0xa7, 0x9b, 0x5d, 0x80, 0x8d, 0xa4, 0x68, 0x7f,
  0x95, 0x78, 0x6e, 0x66, 0x5e, 0x8a, 0x53, 0x87, 0x91, 0x91, 0x86, 0x5f,
  0x5f, 0x61, 0x3d, 0x91, 0x7b, 0x88, 0xb0, 0x6b, 0x57, 0x86, 0x69, 0x85,
  0x91, 0x8d, 0x90, 0xb6, 0x6b, 0x66, 0x76, 0xb9, 0xa3, 0xaa, 0x94, 0xa2,
  0x77, 0x88, 0xa1, 0x8e, 0x9d, 0x78, 0x86, 0xb9, 0x78, 0x84, 0x7b, 0x76,
  0x7a, 0x71, 0x6e, 0x6a, 0xa2, 0x38, 0x6e, 0x9c, 0x36, 0x7a, 0x8d, 0x96,
  0xda, 0x73, 0x6e, 0xc2, 0x57, 0x7b, 0xbb, 0x9f, 0xc5, 0x4c, 0x6c, 0x9a,
  0x72, 0x79, 0xa5, 0xaf, 0x42, 0x6f, 0x58, 0x73, 0x91, 0x5b, 0xa2, 0x99,
  0x46, 0x88, 0x86, 0x6e, 0x9c, 0x9b, 0x98, 0x9b, 0xa3, 0xaa, 0xb6, 0x43,
  0xc5, 0x6c, 0x6e, 0x96, 0xba, 0x95, 0x98, 0x31, 0xbe, 0x69, 0x21, 0x99,
  0xcd, 0x8e, 0xaa, 0x6c, 0xa9, 0xa7, 0x22, 0x83, 0xce, 0xa3, 0xb2, 0x5d,
  0xab, 0x9a, 0x2d, 0x83, 0xbd, 0x9b, 0x8f, 0x75, 0x92, 0x7e, 0x6b, 0x83,
  0x98, 0x7b, 0x88, 0x65, 0x92, 0x71, 0x7d, 0x7f, 0x9b, 0x77, 0x90, 0x7a,
  0x92, 0x59, 0x80, 0x7d, 0xb4, 0x9c, 0x8a, 0x83, 0x8c, 0x58, 0x59, 0x78,
  0x91, 0x89, 0x76, 0x77, 0xa2, 0x82, 0x69, 0x5b, 0x5f, 0x9f, 0x3e, 0x87,
  0xab, 0x83, 0xab, 0x76, 0x5e, 0x8e, 0x41, 0x7a, 0xb3, 0x72, 0x9b, 0x6d,
  0x54, 0x93, 0x62, 0x72, 0x86, 0x81, 0x6e, 0xaf, 0x6d, 0x9d, 0x73, 0xac,
  0xa5, 0x85, 0x93, 0xb0, 0x89, 0x89, 0xa2, 0x9b, 0x86, 0x97, 0x77, 0x96,
  0x8f, 0xae, 0x7b, 0x3a, 0x86, 0x72, 0x73, 0x6f, 0xa5, 0x35, 0x78, 0xab,
  0x27, 0x8e, 0x87, 0x7c, 0xcd, 0x67, 0x6b, 0xab, 0x73, 0x82, 0xa7, 0xa4,
  0xc1, 0x5d, 0x4f, 0x8d, 0x8d, 0x82, 0xb0, 0xb7, 0x39, 0x58, 0x56, 0x78,
  0x8a, 0x84, 0xa8, 0xaf, 0x32, 0x6d, 0xa4, 0x5a, 0xa3, 0x7a, 0x9d, 0x94,
  0xa9, 0xa0, 0xc5, 0x58, 0xbe, 0x83, 0x6b, 0xa0, 0xbd, 0xad, 0x94, 0x22,
  0xad, 0x95, 0x63, 0x87, 0xd0, 0x9b, 0xb2, 0x76, 0x95, 0x79, 0x33, 0x72,
  0xe0, 0xb4, 0xd2, 0x61, 0xac, 0x5b, 0x2a, 0xa0, 0xbb, 0x8e, 0x98, 0x62,
  0x9f, 0x90, 0x77, 0x8c, 0xab, 0x73, 0x8d, 0x56, 0x8f, 0x7c, 0x84, 0x7d,
  0x90, 0x90, 0xaa, 0x70, 0x89, 0x71, 0x77, 0x87, 0x9f, 0xab, 0x80, 0x71,
  0xa2, 0x61, 0x5a, 0x63, 0x8e, 0x8e, 0x6d, 0x86, 0xaa, 0xb4, 0x7a, 0x63,
  0x6d, 0x8e, 0x67, 0x8e, 0xb5, 0x76, 0x85, 0x77, 0x65, 0x84, 0x50, 0x90,
  0xbb, 0xa2, 0x91, 0x84, 0x4f, 0x8a, 0x72, 0x7e, 0x95, 0xaa, 0x8a, 0xa9,
  0x69, 0x82, 0x74, 0xac, 0x90, 0x5b, 0x77, 0xc5, 0x82, 0x85, 0x8a, 0x76,
  0x7d, 0x9d, 0x7e, 0xb2, 0x98, 0x87, 0x59, 0x5f, 0x84, 0xa8, 0xa9, 0x48,
  0x90, 0x29, 0x54, 0xa4, 0x42, 0x8a, 0x8b, 0x8d, 0xc4, 0x59, 0x54, 0xc0,
  0x61, 0x7d, 0xad, 0xa9, 0xb6, 0x6c, 0x47, 0x99, 0x6a, 0x6c, 0xb1, 0xa8,
  0x50, 0x50, 0x66, 0x72, 0xa3, 0x56, 0xa1, 0xa3, 0x2a, 0x6b, 0x91, 0x5e,
  0x93, 0x64, 0x8d, 0x9f, 0x94, 0xb4, 0xaf, 0x4a, 0xb1, 0x85, 0x7c, 0x82,
  0xbc, 0xa5, 0xaf, 0x3b, 0xb7, 0x7d, 0x53, 0x8d, 0xc1, 0x9e, 0xb2, 0x4e,
  0xa8, 0x75, 0x23, 0x8b, 0xc0, 0x8b, 0xb7, 0x5b, 0xa6, 0x8c, 0x2e, 0x7f,
  0xbb, 0x8c, 0x8b, 0x6c, 0x9a, 0x5b, 0x67, 0x7d, 0xa8, 0x7c, 0x79, 0x6c,
  0x7c, 0x73, 0x8b, 0x72, 0x95, 0x92, 0x8a, 0x7a, 0x91, 0x89, 0x5d, 0x7b,
  0xa7, 0x91, 0x8d, 0x69, 0xab, 0xaf, 0x5a, 0x76, 0xb7, 0x82, 0x6e, 0x8a,
  0xab, 0x74, 0x72, 0x56, 0x76, 0x93, 0x6e, 0x82, 0xa8, 0xa9, 0x9e, 0x6c,
  0x7f, 0x97, 0x6c, 0x7c, 0x9d, 0x8e, 0x84, 0x68, 0x5d, 0x6c, 0x75, 0x8c,
  0x9e, 0x68, 0x73, 0xb0, 0x60, 0x7e, 0x8c, 0xa3, 0x7e, 0x96, 0x7e, 0xaf,
  0x6f, 0x82, 0x9d, 0x7a, 0x83, 0x8a, 0x80, 0xc1, 0x80, 0x99, 0x67, 0x58,
  0x8d, 0x7b, 0x8d, 0x67, 0x99, 0x56, 0x5c, 0x99, 0x36, 0x8d, 0x6e, 0x75,
  0xb5, 0x5d, 0x48, 0xa9, 0x51, 0x7d, 0xa3, 0xa1, 0xb6, 0x6d, 0x4b, 0xa4,
  0x6a, 0x65, 0xa2, 0xb7, 0x4a, 0x5b, 0x52, 0x6f, 0x8a, 0x78, 0xae, 0xab,
  0x57, 0x66, 0x85, 0x60, 0x9e, 0x72, 0xa6, 0x95, 0x99, 0x9b, 0xb7, 0x41,
  0xaf, 0x65, 0x82, 0x8d, 0xbd, 0x9c, 0xa6, 0x60, 0xab, 0x9e, 0x5c, 0x7b,
  0xbb, 0x92, 0xb4, 0x7a, 0x96, 0x5c, 0x2c, 0x79, 0xc7, 0x98, 0xbf, 0x69,
  0xa9, 0x7c, 0x46, 0x8b, 0xb7, 0x84, 0x8a, 0x6d, 0x8a, 0x8a, 0x76, 0x88,
  0x9c, 0x96, 0x87, 0x48, 0x91, 0x6d, 0x77, 0x80, 0x81, 0xa9, 0x98, 0x86,
  0xa3, 0x80, 0x75, 0x7d, 0xb4, 0x9c, 0x7b, 0x61, 0xa2, 0x8e, 0x70, 0x5a,
  0x89, 0x9b, 0x86, 0x75, 0xa1, 0x9b, 0x86, 0x62, 0x75, 0x9d, 0x78, 0x83,
  0xa0, 0x5a, 0x9b, 0x70, 0x72, 0x89, 0x6f, 0x8f, 0xa7, 0x81, 0xa4, 0x72,
  0x6a, 0x89, 0x6e, 0x8f, 0xb0, 0x7a, 0x8b, 0xa4, 0x63, 0x89, 0x94, 0xab,
  0x78, 0x86, 0x7f, 0xc3, 0x76, 0x94, 0x89, 0x64, 0x9a, 0x78, 0x89, 0xa5,
  0x7c, 0xa3, 0x6a, 0x6d, 0x9a, 0x90, 0x8f, 0x6b, 0x79, 0x63, 0x7b, 0x99,
  0x49, 0x7e, 0x9a, 0x7f, 0xab, 0x77, 0x5c, 0xaf, 0x54, 0x72, 0xa4, 0x9c,
  0xaa, 0x81, 0x53, 0xa0, 0x7b, 0x5b, 0xb4, 0xb8, 0x6c, 0x57, 0x49, 0x77,
  0x8b, 0x5d, 0x9c, 0x8e, 0x56, 0x86, 0x92, 0x57, 0xa8, 0x6f, 0x91, 0x97,
  0xa0, 0x99, 0xbd, 0x44, 0xbd, 0x8e, 0x6f, 0x9a, 0xba, 0x90, 0xab, 0x42,
  0xa6, 0xb4, 0x64, 0x91, 0xb2, 0xa1, 0x8d, 0x4f, 0xaf, 0x8c, 0x2a, 0x88,
  0xb3, 0xa1, 0xc7, 0x41, 0xbc, 0x5f, 0x55, 0x8f, 0xab, 0x83, 0x8e, 0x60,
  0x7f, 0x79, 0x8f, 0x77, 0x9b, 0x9f, 0x73, 0x59, 0x92, 0x9a, 0x72, 0x66,
  0x87, 0x8c, 0x97, 0x8a, 0xa6, 0x74, 0x82, 0x7d, 0xaa, 0xa9, 0x84, 0x6d,
  0x9b, 0xa0, 0x59, 0x68, 0xb0, 0x8e, 0x8a, 0x6e, 0x99, 0x8f, 0x8e, 0x60,
  0x75, 0x89, 0x69, 0x82, 0x93, 0x6e, 0x8b, 0x7b, 0x73, 0x93, 0x74, 0x87,
  0x96, 0x88, 0x98, 0x84, 0x70, 0x8d, 0x74, 0x87, 0x92, 0x8c, 0x7c, 0xa9,
  0x78, 0x75, 0x98, 0xb1, 0x83, 0x67, 0x79, 0xa8, 0x82, 0x84, 0x81, 0x4e,
  0x79, 0xa0, 0x94, 0xae, 0x82, 0xab, 0x58, 0x61, 0x9a, 0x68, 0x88, 0x82,
  0xa2, 0x64, 0x60, 0xa8, 0x44, 0x86, 0x80, 0x7f, 0xc9, 0x6b, 0x5e, 0xa2,
  0x5e, 0x7b, 0xaa, 0x9c, 0xa5, 0x7a, 0x54, 0x9c, 0x86, 0x7d, 0xb1, 0xad,
  0x67, 0x57, 0x6e, 0x82, 0x90, 0x5d, 0x9d, 0xa0, 0x61, 0x7d, 0x9a, 0x5f,
  0xb2, 0x8c, 0x98, 0x9c, 0x91, 0x95, 0xaf, 0x5c, 0xbe, 0x60, 0x7a, 0xa0,
  0xbc, 0xa1, 0xb0, 0x51, 0xab, 0x75, 0x69, 0x96, 0xb7, 0x95, 0xab, 0x63,
  0xa4, 0x89, 0x25, 0x72, 0xc2, 0xb6, 0xc8, 0x56, 0xb4, 0x7e, 0x49, 0x9c,
  0xc9, 0x8e, 0x7d, 0x7d, 0x97, 0x9a, 0x73, 0x72, 0xad, 0xa9, 0x8e, 0x6d,
  0xa2, 0x91, 0x70, 0x87, 0xa0, 0x91, 0x9a, 0x86, 0xa1, 0x7a, 0x82, 0x79,
  0xa9, 0xb0, 0x98, 0x78, 0xa8, 0x92, 0x6a, 0x6e, 0x95, 0x9c, 0x79, 0x84,
  0x95, 0x7a, 0x92, 0x5f, 0x7b, 0x87, 0x7c, 0x86, 0xa5, 0x90, 0x91, 0x76,
  0x55, 0x99, 0x88, 0x80, 0xb0, 0x7f, 0xa6, 0x88, 0x71, 0x70, 0x7f, 0x8e,
  0x96, 0x93, 0x87, 0xb8, 0x73, 0x8b, 0x9a, 0xa6, 0xa1, 0x55, 0x79, 0xbb,
  0x81, 0x7d, 0x83, 0x6d, 0x93, 0x64, 0x71, 0x9f, 0x7a, 0xb2, 0x73, 0x72,
  0x87, 0x8e, 0x8e, 0x7b, 0x8c, 0x50, 0x82, 0x8d, 0x5e, 0x67, 0x83, 0x79,
  0xd3, 0x55, 0x5e, 0xab, 0x57, 0x8c, 0x98, 0x92, 0x8e, 0x61, 0x35, 0x90,
  0x8d, 0x86, 0x95, 0xa6, 0x7f, 0x70, 0x62, 0x91, 0x97, 0xa3, 0x9a, 0x8e,
  0x3e, 0x5c, 0x9f, 0x45, 0xa5, 0x89, 0x9e, 0x8a, 0x95, 0x92, 0xc2, 0x4a,
  0xb1, 0x8f, 0x82, 0x80, 0xc1, 0x9c, 0xa6, 0x79, 0xc1, 0x5e, 0x63, 0x86,
  0xbf, 0x95, 0xb9, 0x56, 0xa6, 0x82, 0x42, 0x72, 0xc4, 0x8f, 0xb6, 0x62,
  0x86, 0x84, 0x5f, 0x94, 0xb7, 0x96, 0x74, 0x56, 0x92, 0x6f, 0x5e, 0x83,
  0xaa, 0x91, 0x78, 0x5d, 0x9e, 0x84, 0x6b, 0x6f, 0x76, 0x90, 0x8d, 0x6e,
  0x99, 0x71, 0x7c, 0x63, 0xa9, 0xb0, 0x8e, 0x6f, 0x92, 0x84, 0x6f, 0x6e,
  0x83, 0xa5, 0x8a, 0x8d, 0x8a, 0x87, 0x8f, 0x63, 0x7e, 0x92, 0x83, 0x7d,
  0x97, 0x93, 0xb0, 0x81, 0x57, 0x8c, 0x72, 0x6e, 0x89, 0x88, 0x88, 0x84,
  0x5a, 0x98, 0x73, 0x75, 0xa1, 0x7d, 0x8f, 0xb5, 0x73, 0x80, 0x87, 0xac,
  0x9b, 0x7f, 0x87, 0xa9, 0x88, 0x7e, 0x93, 0x41, 0x86, 0x86, 0x7f, 0x95,
  0x8c, 0x9b, 0x57, 0x52, 0x93, 0x80, 0x96, 0x6f, 0x89, 0x51, 0x86, 0xa8,
  0x3f, 0x83, 0x9d, 0x7a, 0xa6, 0x5c, 0x58, 0xa6, 0x6e, 0x89, 0xaf, 0x98,
  0x9d, 0x87, 0x47, 0xaf, 0x80, 0x5e, 0xaf, 0xa8, 0x6f, 0x51, 0x60, 0xa1,
  0xa1, 0x64, 0xa9, 0x87, 0x5b, 0x6f, 0x7b, 0x60, 0x9a, 0x6d, 0x8d, 0x94,
  0xaf, 0x98, 0xb7, 0x60, 0xa6, 0x83, 0x85, 0x9b, 0xc2, 0xbd, 0xb2, 0x74,
  0xc0, 0xa0, 0x60, 0x84, 0xc3, 0xa6, 0xa8, 0x6a, 0xb5, 0x74, 0x43, 0x75,
  0xaf, 0x9e, 0xa2, 0x6d, 0xa9, 0x93, 0x50, 0x92, 0xbd, 0x8c, 0x67, 0x75,
  0x89, 0x80, 0x6d, 0x7e, 0xab, 0x8f, 0x6d, 0x62, 0x93, 0x7a, 0x6d, 0x6b,
  0xac, 0x86, 0x87, 0x7a, 0x8b, 0x75, 0x8c, 0x6c, 0x9c, 0xa0, 0x8f, 0x68,
  0xa5, 0x96, 0x63, 0x89, 0xb5, 0x91, 0x9c, 0x89, 0x8f, 0xaa, 0x7c, 0x6a,
  0x84, 0x71, 0x87, 0x8e, 0x94, 0x9b, 0x99, 0x76, 0x67, 0x8a, 0x6b, 0x78,
  0xad, 0x7e, 0x8e, 0x7d, 0x6f, 0x83, 0x8a, 0x81, 0xa5, 0x78, 0x9c, 0xba,
  0x68, 0x7e, 0x91, 0x9a, 0x82, 0x94, 0x8f, 0xa3, 0x8e, 0x87, 0x96, 0x35,
  0x81, 0x7b, 0x7f, 0x9b, 0x8c, 0xa7, 0x6f, 0x52, 0x96, 0x84, 0x85, 0x5d,
  0x8e, 0x4a, 0x5d, 0x9a, 0x45, 0x88, 0x91, 0x70, 0xc1, 0x38, 0x50, 0xab,
  0x53, 0x7d, 0xac, 0x98, 0xb3, 0x77, 0x4f, 0x92, 0x87, 0x83, 0xbd, 0xae,
  0x64, 0x5f, 0x58, 0x7f, 0x8f, 0x6f, 0x9d, 0x9c, 0x44, 0x5a, 0x78, 0x54,
  0xa2, 0x7d, 0x89, 0x7d, 0xa0, 0x89, 0xbb, 0x64, 0xb0, 0x67, 0x87, 0x8f,
  0xb3, 0xa5, 0xb9, 0x77, 0xba, 0x89, 0x5c, 0x8c, 0xd9, 0xa6, 0x9f, 0x62,
  0xa1, 0x6e, 0x4c, 0x6d, 0xb8, 0x9a, 0xb8, 0x67, 0x9b, 0x74, 0x60, 0x96,
  0x7c, 0x91, 0x77, 0x7e, 0x90, 0x94, 0x84, 0x85, 0xad, 0x96, 0x81, 0x63,
  0xa5, 0x6d, 0x5d, 0x6e, 0x96, 0x86, 0x99, 0x73, 0x94, 0x9b, 0x6c, 0x8e,
  0xa9, 0x97, 0x77, 0x7c, 0x9f, 0x87, 0x6a, 0x74, 0xa9, 0x8e, 0x75, 0x62,
  0x8a, 0x96, 0x7d, 0x62, 0x82, 0x83, 0x96, 0x6c, 0x91, 0x64, 0xa6, 0x74,
  0x56, 0x7e, 0x94, 0x86, 0x87, 0x72, 0x86, 0x72, 0x6a, 0x76, 0x93, 0x7d,
  0x98, 0x93, 0xaa, 0xab, 0x67, 0xad, 0x99, 0x96, 0xb1, 0x66, 0x88, 0x95,
  0x9a, 0x87, 0x86, 0x4b, 0x81, 0x8c, 0x8e, 0x96, 0xa4, 0x9b, 0x6a, 0x63,
  0xa2, 0x7f, 0x7c, 0x6e, 0x88, 0x52, 0x63, 0xa1, 0x6d, 0x5d, 0x8a, 0x72,
  0xa7, 0x4d, 0x52, 0x9c, 0x5b, 0x74, 0xb9, 0x9b, 0x90, 0x6a, 0x43, 0x94,
  0x7b, 0x7a, 0xbe, 0xa4, 0x60, 0x58, 0x62, 0x7f, 0x82, 0x9c, 0x93, 0x80,
  0x6d, 0x5b, 0x73, 0x60, 0x8e, 0x6e, 0x93, 0x8a, 0x89, 0x82, 0xb5, 0x5f,
  0xac, 0x73, 0x73, 0x96, 0xd1, 0xb1, 0xb2, 0x62, 0xa6, 0x81, 0x66, 0x8a,
  0xbd, 0xa6, 0x98, 0x5f, 0x9b, 0x86, 0x5f, 0x7e, 0xb0, 0x86, 0xa9, 0x56,
  0xb2, 0x78, 0x56, 0x8a, 0xab, 0x88, 0x5d, 0x66, 0x96, 0x5b, 0x83, 0x94,
  0xa6, 0x9e, 0x7c, 0x6d, 0x81, 0x7b, 0x70, 0x6a, 0x89, 0x8b, 0x82, 0x86,
  0x99, 0x6e, 0x75, 0x92, 0x97, 0x8d, 0x76, 0x72, 0x98, 0x70, 0x6b, 0x5f,
  0xb3, 0x80, 0x8d, 0x7a, 0x85, 0x94, 0x7f, 0x70, 0x84, 0x80, 0x93, 0x78,
  0x98, 0x7a, 0x98, 0x64, 0x6c, 0x8d, 0x87, 0x46, 0x8b, 0x8b, 0x86, 0x7f,
  0x75, 0x8d, 0x80, 0x8c, 0x98, 0xa1, 0x8c, 0xba, 0x5f, 0x6e, 0xaa, 0x91,
  0x8d, 0x61, 0x7e, 0xac, 0xbf, 0x9e, 0x7f, 0x67, 0x9b, 0xab, 0xa1, 0xb2,
  0xaf, 0xb0, 0x83, 0x57, 0xa3, 0x7c, 0x9d, 0x76, 0x97, 0x43, 0x7c, 0x9e,
  0x67, 0x7e, 0x86, 0x81, 0x90, 0x66, 0x5e, 0xb1, 0x5b, 0x7e, 0xa9, 0x80,
  0x75, 0x7d, 0x5a, 0x93, 0x6f, 0x71, 0xba, 0x9c, 0x72, 0x76, 0x3b, 0x80,
  0x9c, 0x94, 0xb4, 0xa0, 0x75, 0x73, 0x85, 0x43, 0x9a, 0x80, 0x9e, 0x8b,
  0x7e, 0x7c, 0xb4, 0x6e, 0x9d, 0x7b, 0x6f, 0xab, 0xcf, 0xaf, 0x7f, 0x65,
  0xc4, 0x5a, 0x66, 0x90, 0xc5, 0x91, 0xa0, 0x59, 0xb0, 0x80, 0x5c, 0x73,
  0xa7, 0x84, 0xa0, 0x59, 0xaa, 0x90, 0x66, 0x87, 0xb4, 0x8e, 0x61, 0x74,
  0x83, 0x63, 0x95, 0x87, 0xae, 0xa3, 0x8a, 0x79, 0x8f, 0x7b, 0x98, 0x6e,
  0x90, 0x6a, 0x85, 0x8d, 0x88, 0x74, 0x61, 0x7c, 0x9a, 0x94, 0x8d, 0x83,
  0xae, 0x8f, 0x76, 0x6e, 0x97, 0x84, 0x97, 0x75, 0x9a, 0x5a, 0x7d, 0x67,
  0x89, 0x92, 0xa1, 0x7e, 0x86, 0x82, 0x94, 0x79, 0x59, 0x6c, 0x83, 0x61,
  0x9f, 0x73, 0xad, 0x80, 0x83, 0x87, 0x6f, 0x94, 0x99, 0x85, 0xb2, 0xa7,
  0x83, 0xa3, 0x8f, 0xb5, 0xa2, 0x7b, 0x9d, 0xb7, 0xc6, 0xa4, 0x70, 0x7f,
  0xa1, 0x62, 0x8e, 0xa2, 0xab, 0x9b, 0x48, 0x8a, 0x9d, 0x74, 0x76, 0x6f,
  0x98, 0x61, 0x55, 0x91, 0x6c, 0x7b, 0x93, 0x75, 0xa1, 0x69, 0x6f, 0xae,
  0x83, 0x93, 0xde, 0xae, 0x9f, 0xa5, 0x51, 0x9d, 0x89, 0x8a, 0xba, 0xbe,
  0x4f, 0x7c, 0x5e, 0x86, 0x88, 0x72, 0xd2, 0xb4, 0x6a, 0x7a, 0x8c, 0x61,
  0x82, 0x8e, 0xb7, 0xaa, 0xb8, 0x91, 0xb7, 0x67, 0x9c, 0x78, 0x91, 0x97,
